{
    "special_tokens": [
        "<|PAD|>",
        "<|UNK|>",
        "<|SOS|>",
        "<|EOS|>"
    ],
    "eow_token": "<|w|>",
    "token_to_id": {
        "<|PAD|>": 0,
        "<|UNK|>": 1,
        "<|SOS|>": 2,
        "<|EOS|>": 3,
        "<|w|>": 4,
        "अ": 5,
        "ं": 6,
        "त": 7,
        "र": 8,
        "्": 9,
        "ा": 10,
        "ष": 11,
        "ट": 12,
        "ी": 13,
        "य": 14,
        "क": 15,
        "स": 16,
        "ह": 17,
        "ो": 18,
        "ग": 19,
        "व": 20,
        "ि": 21,
        "फ": 22,
        "ल": 23,
        "न": 24,
        "ू": 25,
        "ॉ": 26,
        "–": 27,
        "द": 28,
        "ु": 29,
        "ध": 30,
        "े": 31,
        "म": 32,
        "च": 33,
        "ख": 34,
        "ै": 35,
        "प": 36,
        "ण": 37,
        "ए": 38,
        "ज": 39,
        "औ": 40,
        "ऐ": 41,
        "-": 42,
        "ओ": 43,
        "श": 44,
        "उ": 45,
        "छ": 46,
        "थ": 47,
        "़": 48,
        "ब": 49,
        "ड": 50,
        "आ": 51,
        "।": 52,
        "भ": 53,
        ",": 54,
        "�": 55,
        "इ": 56,
        "ञ": 57,
        "ौ": 58,
        "ई": 59,
        "ृ": 60,
        "1": 61,
        "3": 62,
        "ठ": 63,
        "2": 64,
        "0": 65,
        "4": 66,
        "(": 67,
        "E": 68,
        "C": 69,
        "O": 70,
        "S": 71,
        ")": 72,
        "\"": 73,
        "ढ": 74,
        "7": 75,
        ":": 76,
        "ँ": 77,
        "झ": 78,
        "घ": 79,
        "L": 80,
        "G": 81,
        "B": 82,
        "T": 83,
        "6": 84,
        ".": 85,
        "H": 86,
        "I": 87,
        "V": 88,
        "$": 89,
        "5": 90,
        "R": 91,
        "M": 92,
        "D": 93,
        "s": 94,
        "ऋ": 95,
        ";": 96,
        "9": 97,
        "%": 98,
        "ऑ": 99,
        "“": 100,
        "”": 101,
        "N": 102,
        "¥": 103,
        "ऊ": 104,
        "‘": 105,
        "’": 106,
        "ः": 107,
        "8": 108,
        "‍": 109,
        "—": 110,
        "•": 111,
        "/": 112,
        "?": 113,
        "'": 114,
        "ड़": 115,
        "P": 116,
        "x": 117,
        "o": 118,
        "n": 119,
        "b": 120,
        "i": 121,
        "l": 122,
        "d": 123,
        "g": 124,
        "k": 125,
        "A": 126,
        "°": 127,
        "c": 128,
        "a": 129,
        "e": 130,
        "m": 131,
        "F": 132,
        "+": 133,
        "Y": 134,
        "W": 135,
        "h": 136,
        "t": 137,
        "p": 138,
        "€": 139,
        "U": 140,
        "J": 141,
        "º": 142,
        "ढ़": 143,
        "!": 144,
        "[": 145,
        "]": 146,
        "ज़": 147,
        "K": 148,
        "r": 149,
        "​": 150,
        "२": 151,
        "£": 152,
        "f": 153,
        "u": 154,
        "‌": 155,
        "Z": 156,
        "Q": 157,
        "फ़": 158,
        "v": 159,
        "y": 160,
        "ॅ": 161,
        "X": 162,
        "ऩ": 163,
        "j": 164,
        "}": 165,
        "{": 166,
        "z": 167,
        "&": 168,
        "😂": 169,
        "ऱ": 170,
        "😻": 171,
        "💓": 172,
        "@": 173,
        "ख़": 174,
        "ॐ": 175,
        "*": 176,
        "॥": 177,
        "w": 178,
        "#": 179,
        "₹": 180,
        "क़": 181,
        "^": 182,
        "ग़": 183,
        "Á": 184,
        "ङ": 185,
        "~": 186,
        "॔": 187,
        "ऎ": 188,
        "q": 189,
        "í": 190,
        "_": 191,
        "￼": 192,
        "य़": 193,
        "ळ": 194,
        "🖤": 195,
        "¨": 196,
        "●": 197,
        "·": 198,
        "ऒ": 199,
        ">": 200,
        "Ã": 201,
        "े<|w|>": 202,
        "ा<|w|>": 203,
        "ी<|w|>": 204,
        "र<|w|>": 205,
        "ं<|w|>": 206,
        "के<|w|>": 207,
        "।<|w|>": 208,
        "मे": 209,
        "न<|w|>": 210,
        "्र": 211,
        "ने<|w|>": 212,
        "है": 213,
        "में<|w|>": 214,
        "ो<|w|>": 215,
        "र्": 216,
        "की<|w|>": 217,
        "ों<|w|>": 218,
        ",<|w|>": 219,
        "क<|w|>": 220,
        "त<|w|>": 221,
        "से<|w|>": 222,
        "कि": 223,
        "वा": 224,
        "का": 225,
        "स्": 226,
        "ल<|w|>": 227,
        "या<|w|>": 228,
        "स<|w|>": 229,
        "को<|w|>": 230,
        "्य": 231,
        "मा": 232,
        "क्": 233,
        "का<|w|>": 234,
        "ए<|w|>": 235,
        "रा": 236,
        "प्र": 237,
        "है।<|w|>": 238,
        "लि": 239,
        "वि": 240,
        "म<|w|>": 241,
        "सा": 242,
        "जा": 243,
        "नि": 244,
        "कर": 245,
        "ना<|w|>": 246,
        "बा": 247,
        "ला": 248,
        "और<|w|>": 249,
        "या": 250,
        "कर<|w|>": 251,
        "रह": 252,
        "ई<|w|>": 253,
        "पर<|w|>": 254,
        "व<|w|>": 255,
        "ता": 256,
        "कि<|w|>": 257,
        "रि": 258,
        "द<|w|>": 259,
        "ता<|w|>": 260,
        "री<|w|>": 261,
        "ह<|w|>": 262,
        "दि": 263,
        "ति": 264,
        "हा": 265,
        "भी<|w|>": 266,
        "य<|w|>": 267,
        "पा": 268,
        "सं": 269,
        "ट<|w|>": 270,
        "दे": 271,
        "ग<|w|>": 272,
        "हो": 273,
        "क्ष": 274,
        "ले<|w|>": 275,
        "त्": 276,
        "जि": 277,
        "ना": 278,
        "मि": 279,
        "ले": 280,
        "गा": 281,
        "हु": 282,
        "ही": 283,
        "ण<|w|>": 284,
        "भा": 285,
        "लिए<|w|>": 286,
        "हैं": 287,
        "रो": 288,
        "चा": 289,
        "सि": 290,
        "श<|w|>": 291,
        "ज<|w|>": 292,
        "ते<|w|>": 293,
        "हीं<|w|>": 294,
        "है<|w|>": 295,
        "ड़": 296,
        "ें": 297,
        "ब<|w|>": 298,
        "पु": 299,
        "था": 300,
        "इस": 301,
        "नी<|w|>": 302,
        "धि": 303,
        "को": 304,
        "न्": 305,
        "दा": 306,
        "द्": 307,
        "हैं।<|w|>": 308,
        "ही<|w|>": 309,
        "ला<|w|>": 310,
        "यों<|w|>": 311,
        "नहीं<|w|>": 312,
        "लो": 313,
        "इस<|w|>": 314,
        "ली<|w|>": 315,
        "्य<|w|>": 316,
        "रू": 317,
        "हि": 318,
        "प<|w|>": 319,
        "ी।<|w|>": 320,
        "च<|w|>": 321,
        "शा": 322,
        "ड<|w|>": 323,
        "रा<|w|>": 324,
        "री": 325,
        "कु": 326,
        "मु": 327,
        "ती<|w|>": 328,
        "ति<|w|>": 329,
        "एक<|w|>": 330,
        "्या": 331,
        "0<|w|>": 332,
        "सु": 333,
        "धा": 334,
        "करने<|w|>": 335,
        "या।<|w|>": 336,
        "किया<|w|>": 337,
        "सी<|w|>": 338,
        "पू": 339,
        "ंग": 340,
        "क्र": 341,
        "हो<|w|>": 342,
        "थ<|w|>": 343,
        "अप": 344,
        "त्र": 345,
        "नों<|w|>": 346,
        "शि": 347,
        "जा<|w|>": 348,
        "सम": 349,
        "ल्": 350,
        "सी": 351,
        "े।<|w|>": 352,
        "ें<|w|>": 353,
        "वार<|w|>": 354,
        "स्थ": 355,
        "तक<|w|>": 356,
        "दी<|w|>": 357,
        "ट्र": 358,
        "यह<|w|>": 359,
        "यो": 360,
        "के": 361,
        "सर": 362,
        "ित<|w|>": 363,
        "ने": 364,
        "बाद<|w|>": 365,
        "अधि": 366,
        ".<|w|>": 367,
        "अन": 368,
        "टि": 369,
        "ीय<|w|>": 370,
        "ष्": 371,
        "बि": 372,
        "पह": 373,
        "श्": 374,
        "मं": 375,
        "सक": 376,
        "ंग<|w|>": 377,
        "रु": 378,
        "गया<|w|>": 379,
        "राज": 380,
        "ओं<|w|>": 381,
        "डि": 382,
        "त्र<|w|>": 383,
        "कार्": 384,
        "साथ<|w|>": 385,
        "कार<|w|>": 386,
        "रे": 387,
        "कह": 388,
        "गों<|w|>": 389,
        "ग्र": 390,
        "वर्": 391,
        "बी": 392,
        "बता": 393,
        "कार": 394,
        "परि": 395,
        "शु": 396,
        "रहे<|w|>": 397,
        "बं": 398,
        "उन्": 399,
        "तो<|w|>": 400,
        "प्": 401,
        "देश<|w|>": 402,
        "मी": 403,
        "से": 404,
        "लोगों<|w|>": 405,
        "रे<|w|>": 406,
        "उन": 407,
        "वे": 408,
        "सिं": 409,
        "पी": 410,
        "ध<|w|>": 411,
        "रहा<|w|>": 412,
        "जी": 413,
        "नी": 414,
        "टी<|w|>": 415,
        "खा": 416,
        "यु": 417,
        "टी": 418,
        "निर्": 419,
        "जाए": 420,
        "दु": 421,
        "है,<|w|>": 422,
        "फ<|w|>": 423,
        "हर<|w|>": 424,
        "मौ": 425,
        "बताया<|w|>": 426,
        "कारी<|w|>": 427,
        "पि": 428,
        "5<|w|>": 429,
        "दू": 430,
        "पुलि": 431,
        "चु": 432,
        "शन<|w|>": 433,
        "वा<|w|>": 434,
        "टर<|w|>": 435,
        "उप": 436,
        "कहा<|w|>": 437,
        "गा।<|w|>": 438,
        "रों<|w|>": 439,
        "रही<|w|>": 440,
        "लग": 441,
        "ू<|w|>": 442,
        "हैं<|w|>": 443,
        "ंच<|w|>": 444,
        "हुए<|w|>": 445,
        "ढ़": 446,
        "लेकि": 447,
        "पुलिस<|w|>": 448,
        "इसके<|w|>": 449,
        "था।<|w|>": 450,
        "ती": 451,
        "च्": 452,
        "टा": 453,
        "ैं": 454,
        "गु": 455,
        "कोरो": 456,
        "टे": 457,
        "इन<|w|>": 458,
        "वी": 459,
        "अं": 460,
        "जिस": 461,
        "उस": 462,
        "डा": 463,
        "लेकिन<|w|>": 464,
        "गई<|w|>": 465,
        "दिया<|w|>": 466,
        "होने<|w|>": 467,
        "ब्": 468,
        "बे": 469,
        "वाले<|w|>": 470,
        "हां<|w|>": 471,
        "दा<|w|>": 472,
        "ए।<|w|>": 473,
        "कों<|w|>": 474,
        "चि": 475,
        "ष<|w|>": 476,
        "कोरोना<|w|>": 477,
        "पूर्": 478,
        "कर्": 479,
        "ख<|w|>": 480,
        "स्था": 481,
        "पहु": 482,
        "पो": 483,
        "मो": 484,
        "र,<|w|>": 485,
        "डी": 486,
        "था<|w|>": 487,
        "जो<|w|>": 488,
        "अपने<|w|>": 489,
        "अनु": 490,
        "ध्य": 491,
        "सो": 492,
        "गर<|w|>": 493,
        "अब<|w|>": 494,
        "रूप<|w|>": 495,
        "20": 496,
        "क्षे": 497,
        "व्य": 498,
        "गि": 499,
        "मा<|w|>": 500,
        "आ<|w|>": 501,
        "पहले<|w|>": 502,
        "फि": 503,
        "दर्": 504,
        "वे<|w|>": 505,
        "सिंह<|w|>": 506,
        "गया।<|w|>": 507,
        "दो": 508,
        "ई।<|w|>": 509,
        "2<|w|>": 510,
        "जी<|w|>": 511,
        "स्त": 512,
        "म्": 513,
        "द्वा": 514,
        "सू": 515,
        "इं": 516,
        "कुमा": 517,
        "लगा": 518,
        "हों": 519,
        "रत<|w|>": 520,
        "खि": 521,
        "द्वारा<|w|>": 522,
        "एस": 523,
        "क्षा<|w|>": 524,
        "लेकर<|w|>": 525,
        "र्थ": 526,
        "प्रा": 527,
        "दौ": 528,
        "बर<|w|>": 529,
        "द्र<|w|>": 530,
        "1<|w|>": 531,
        "सा<|w|>": 532,
        "सभी<|w|>": 533,
        "प्रति": 534,
        "गां": 535,
        "रख": 536,
        "छ<|w|>": 537,
        "लों<|w|>": 538,
        "ंच": 539,
        "बु": 540,
        "ली": 541,
        "जन<|w|>": 542,
        "पी<|w|>": 543,
        "बना": 544,
        "होंने<|w|>": 545,
        "अधिक<|w|>": 546,
        "दिन<|w|>": 547,
        "स्प": 548,
        "ं,<|w|>": 549,
        "गी।<|w|>": 550,
        "माम": 551,
        "4<|w|>": 552,
        "ज़": 553,
        "थे।<|w|>": 554,
        "मी<|w|>": 555,
        "पुर<|w|>": 556,
        "रह<|w|>": 557,
        "सरकार<|w|>": 558,
        "गए<|w|>": 559,
        "देश": 560,
        "उन्होंने<|w|>": 561,
        "-<|w|>": 562,
        "ट्": 563,
        "क्ष<|w|>": 564,
        "पं": 565,
        "कम<|w|>": 566,
        "र्ट<|w|>": 567,
        "क्त<|w|>": 568,
        "फा": 569,
        "ये<|w|>": 570,
        "करा": 571,
        "कुछ<|w|>": 572,
        "मान<|w|>": 573,
        "ग्रा": 574,
        "वै": 575,
        "9<|w|>": 576,
        "भि": 577,
        "जै": 578,
        "रू<|w|>": 579,
        "हें<|w|>": 580,
        "कं": 581,
        "3<|w|>": 582,
        "मिल<|w|>": 583,
        "रान<|w|>": 584,
        "स्वा": 585,
        "करते<|w|>": 586,
        "श्र": 587,
        "कार्य": 588,
        "महा": 589,
        ")<|w|>": 590,
        "बै": 591,
        "त्री<|w|>": 592,
        "जू": 593,
        "क्षेत्र<|w|>": 594,
        "मान": 595,
        "पास<|w|>": 596,
        "जु": 597,
        "पे": 598,
        "8<|w|>": 599,
        "ज्": 600,
        "विका": 601,
        "थी।<|w|>": 602,
        "रुप": 603,
        "जार<|w|>": 604,
        "काम<|w|>": 605,
        "मै": 606,
        "उत्": 607,
        "एव": 608,
        "दी": 609,
        "वह<|w|>": 610,
        "6<|w|>": 611,
        "हैं,<|w|>": 612,
        "दो<|w|>": 613,
        "कारण<|w|>": 614,
        "भाग<|w|>": 615,
        "साल<|w|>": 616,
        "कई<|w|>": 617,
        "कृ": 618,
        "लोग<|w|>": 619,
        "एवं<|w|>": 620,
        "बढ़": 621,
        "ड़<|w|>": 622,
        "सर<|w|>": 623,
        "तर": 624,
        "तरह<|w|>": 625,
        "लय<|w|>": 626,
        "जान": 627,
        "यू": 628,
        "कोई<|w|>": 629,
        "ंड<|w|>": 630,
        "शुरू<|w|>": 631,
        "कुमार<|w|>": 632,
        "ची": 633,
        ":<|w|>": 634,
        "घर<|w|>": 635,
        "न,<|w|>": 636,
        "दौरान<|w|>": 637,
        "मरी": 638,
        "सब": 639,
        "बार<|w|>": 640,
        "7<|w|>": 641,
        "स्ट": 642,
        "समा": 643,
        "संक्र": 644,
        "जे<|w|>": 645,
        "हुई<|w|>": 646,
        "लने<|w|>": 647,
        "किसा": 648,
        "समय<|w|>": 649,
        "गांव<|w|>": 650,
        "ते": 651,
        "चार<|w|>": 652,
        "कॉ": 653,
        "महि": 654,
        "बो": 655,
        "फ्": 656,
        "डॉ": 657,
        "जो": 658,
        "मह": 659,
        "यत<|w|>": 660,
        "की": 661,
        "गई।<|w|>": 662,
        "देख": 663,
        "करना<|w|>": 664,
        "तों<|w|>": 665,
        "जन": 666,
        "मुख": 667,
        "रियों<|w|>": 668,
        "बात<|w|>": 669,
        "किसी<|w|>": 670,
        "विकास<|w|>": 671,
        "शे": 672,
        "द्र": 673,
        "प्रभा": 674,
        "ेंद्र<|w|>": 675,
        "्यो": 676,
        "जाने<|w|>": 677,
        "च्च": 678,
        "उन<|w|>": 679,
        "हित<|w|>": 680,
        "तर<|w|>": 681,
        "छा": 682,
        "उनके<|w|>": 683,
        "जांच<|w|>": 684,
        "अन्य<|w|>": 685,
        "साम": 686,
        "स्व": 687,
        "चौ": 688,
        "पहुंच": 689,
        "नगर<|w|>": 690,
        "तार<|w|>": 691,
        "ेंग": 692,
        "खु": 693,
        "उन्हें<|w|>": 694,
        "निय": 695,
        "किया।<|w|>": 696,
        "00<|w|>": 697,
        "मंत्री<|w|>": 698,
        "ख्": 699,
        "गो": 700,
        "लन<|w|>": 701,
        "जिला<|w|>": 702,
        "पै": 703,
        "सन<|w|>": 704,
        "अपनी<|w|>": 705,
        "वाई<|w|>": 706,
        "लॉ": 707,
        "सर्": 708,
        "वी<|w|>": 709,
        "ध्यक्ष<|w|>": 710,
        "इन": 711,
        "जब<|w|>": 712,
        "ज्ञ": 713,
        "ल,<|w|>": 714,
        "विभाग<|w|>": 715,
        "गी<|w|>": 716,
        "स्वास्थ": 717,
        "भारत<|w|>": 718,
        "किए<|w|>": 719,
        "जिले<|w|>": 720,
        "चाहि": 721,
        "मार्": 722,
        "जे": 723,
        "काे<|w|>": 724,
        "आरो": 725,
        "योग<|w|>": 726,
        "टे<|w|>": 727,
        "पर्": 728,
        "पा<|w|>": 729,
        "व्यव": 730,
        "रुपए<|w|>": 731,
        "कू": 732,
        "ंड": 733,
        "सबसे<|w|>": 734,
        "तु": 735,
        "राष्": 736,
        "वाली<|w|>": 737,
        "जब": 738,
        "रण<|w|>": 739,
        "िक<|w|>": 740,
        "यर": 741,
        "ताल<|w|>": 742,
        "भू": 743,
        "स्थि": 744,
        "शी": 745,
        "टिव<|w|>": 746,
        "ड़ी<|w|>": 747,
        "्यू": 748,
        "मामले<|w|>": 749,
        "गा<|w|>": 750,
        "अस्प": 751,
        "भी": 752,
        "ताओं<|w|>": 753,
        "ड़<|w|>": 754,
        "खे": 755,
        "तै": 756,
        "र्ड<|w|>": 757,
        "रं": 758,
        "यहां<|w|>": 759,
        "अव": 760,
        "लिया<|w|>": 761,
        "विधा": 762,
        "दान<|w|>": 763,
        "हम<|w|>": 764,
        "्यादा<|w|>": 765,
        "सकता<|w|>": 766,
        "वन<|w|>": 767,
        "बच्च": 768,
        "जारी<|w|>": 769,
        "आई": 770,
        "कै": 771,
        "निवा": 772,
        "स्वास्थ्य<|w|>": 773,
        "पार्": 774,
        "हुआ<|w|>": 775,
        "बैठ": 776,
        "दर<|w|>": 777,
        "एम": 778,
        "बहु": 779,
        "जानकारी<|w|>": 780,
        "शहर<|w|>": 781,
        "है.<|w|>": 782,
        "ऐसे<|w|>": 783,
        "णा": 784,
        "योज": 785,
        "टा<|w|>": 786,
        "वर<|w|>": 787,
        "ड़ा<|w|>": 788,
        "बजे<|w|>": 789,
        "राम": 790,
        "प्त<|w|>": 791,
        "खिला": 792,
        "नो": 793,
        "गत<|w|>": 794,
        "एम<|w|>": 795,
        "संबं": 796,
        "आई<|w|>": 797,
        "्रे": 798,
        "यर<|w|>": 799,
        "धन<|w|>": 800,
        "बीच<|w|>": 801,
        "रत": 802,
        "दि<|w|>": 803,
        "शामिल<|w|>": 804,
        "देशों<|w|>": 805,
        "मित<|w|>": 806,
        "भे": 807,
        "अस्पताल<|w|>": 808,
        "शासन<|w|>": 809,
        "ी,<|w|>": 810,
        "भ<|w|>": 811,
        "क्रि": 812,
        "विद": 813,
        "स्थित<|w|>": 814,
        "पानी<|w|>": 815,
        "पोर्ट<|w|>": 816,
        "डी<|w|>": 817,
        "हन<|w|>": 818,
        "बद": 819,
        "निया<|w|>": 820,
        "20<|w|>": 821,
        "ज्ञा": 822,
        "इससे<|w|>": 823,
        "यन<|w|>": 824,
        "अभि": 825,
        "कंप": 826,
        "पॉ": 827,
        "ंबर<|w|>": 828,
        "दोनों<|w|>": 829,
        "जाता<|w|>": 830,
        "लाख<|w|>": 831,
        "सूच": 832,
        "क्टर<|w|>": 833,
        "जाएगा।<|w|>": 834,
        "ियों<|w|>": 835,
        "सह": 836,
        "वहीं<|w|>": 837,
        "व्या": 838,
        "डे": 839,
        "तीन<|w|>": 840,
        "ं।<|w|>": 841,
        "हजार<|w|>": 842,
        "टीम<|w|>": 843,
        "ओर<|w|>": 844,
        "ंट<|w|>": 845,
        "ओ<|w|>": 846,
        "निर्मा": 847,
        "दन<|w|>": 848,
        "फ़": 849,
        "10<|w|>": 850,
        "ज्यादा<|w|>": 851,
        "रात<|w|>": 852,
        "्रा": 853,
        "मण<|w|>": 854,
        "सार<|w|>": 855,
        "दिया।<|w|>": 856,
        "उसके<|w|>": 857,
        "घा": 858,
        "स्था<|w|>": 859,
        "दर्ज<|w|>": 860,
        "हत<|w|>": 861,
        "विश्": 862,
        "स्ट<|w|>": 863,
        "यां<|w|>": 864,
        "दार<|w|>": 865,
        "पूर्व<|w|>": 866,
        "इसमें<|w|>": 867,
        "बंद<|w|>": 868,
        "तैया": 869,
        "फो": 870,
        "ट्रे": 871,
        "कार्र": 872,
        "पिछ": 873,
        "मारी<|w|>": 874,
        "फिर<|w|>": 875,
        "दस्": 876,
        "आने<|w|>": 877,
        "सकते<|w|>": 878,
        "दे<|w|>": 879,
        "धी<|w|>": 880,
        "घट": 881,
        "ठा": 882,
        "ंकि<|w|>": 883,
        "ँ<|w|>": 884,
        "सुर": 885,
        "गं": 886,
        "बहुत<|w|>": 887,
        "आर": 888,
        "ख्या<|w|>": 889,
        "मू": 890,
        "इला": 891,
        "शो": 892,
        "देने<|w|>": 893,
        "सहित<|w|>": 894,
        "अभी<|w|>": 895,
        "जों<|w|>": 896,
        "ि<|w|>": 897,
        "करी": 898,
        "कार्रवाई<|w|>": 899,
        "संख्या<|w|>": 900,
        "ड़े<|w|>": 901,
        "जग": 902,
        "या,<|w|>": 903,
        "क्ति<|w|>": 904,
        "201": 905,
        "कल<|w|>": 906,
        "पंचा": 907,
        "फै": 908,
        "लक्ष": 909,
        "तथा<|w|>": 910,
        "वायर": 911,
        "क्रम<|w|>": 912,
        "विद्या": 913,
        "जिसमें<|w|>": 914,
        "गए।<|w|>": 915,
        "धार<|w|>": 916,
        "लं": 917,
        "धान<|w|>": 918,
        "जरू": 919,
        "निक<|w|>": 920,
        "स्कू": 921,
        "धि<|w|>": 922,
        "पूर्ण<|w|>": 923,
        "वल<|w|>": 924,
        "छो": 925,
        "वज": 926,
        "शिक्ष": 927,
        "की।<|w|>": 928,
        "दुका": 929,
        "रिपोर्ट<|w|>": 930,
        "रवि": 931,
        "उनकी<|w|>": 932,
        "चे": 933,
        "शर्": 934,
        "बह<|w|>": 935,
        "बाइ": 936,
        "ड़ी<|w|>": 937,
        "थाना<|w|>": 938,
        "यक<|w|>": 939,
        "नाव<|w|>": 940,
        "रित<|w|>": 941,
        "राज्य<|w|>": 942,
        "ौर<|w|>": 943,
        "परी": 944,
        "मौत<|w|>": 945,
        "युक्त<|w|>": 946,
        "नए<|w|>": 947,
        "जर<|w|>": 948,
        "होती<|w|>": 949,
        "आं": 950,
        "बी<|w|>": 951,
        "आप": 952,
        "ट्रीय<|w|>": 953,
        "मिल": 954,
        "जूद<|w|>": 955,
        "लग<|w|>": 956,
        "अला": 957,
        "एं<|w|>": 958,
        "ंग्रे": 959,
        "गे": 960,
        "राम<|w|>": 961,
        "ए,<|w|>": 962,
        "उसे<|w|>": 963,
        "थी<|w|>": 964,
        "नाम<|w|>": 965,
        "सुबह<|w|>": 966,
        "ठ<|w|>": 967,
        "दुनिया<|w|>": 968,
        "अधिका": 969,
        "जिटिव<|w|>": 970,
        "पिछले<|w|>": 971,
        "युव": 972,
        "निवासी<|w|>": 973,
        "होता<|w|>": 974,
        "क,<|w|>": 975,
        "इसी<|w|>": 976,
        "सामने<|w|>": 977,
        "बैं": 978,
        "हार<|w|>": 979,
        "करीब<|w|>": 980,
        "स्त<|w|>": 981,
        "निर्माण<|w|>": 982,
        "महिला<|w|>": 983,
        "कार्य<|w|>": 984,
        "लाइन<|w|>": 985,
        "कम": 986,
        "तियों<|w|>": 987,
        "खिलाफ<|w|>": 988,
        "स्थिति<|w|>": 989,
        "किसानों<|w|>": 990,
        "प्रदेश<|w|>": 991,
        "ंगे।<|w|>": 992,
        "फी": 993,
        "स्ता": 994,
        "वर्ष<|w|>": 995,
        "त्रों<|w|>": 996,
        "सै": 997,
        "फी<|w|>": 998,
        "चीन<|w|>": 999
    },
    "merge_rules": [
        [
            "े",
            "<|w|>"
        ],
        [
            "ा",
            "<|w|>"
        ],
        [
            "ी",
            "<|w|>"
        ],
        [
            "र",
            "<|w|>"
        ],
        [
            "ं",
            "<|w|>"
        ],
        [
            "क",
            "े<|w|>"
        ],
        [
            "।",
            "<|w|>"
        ],
        [
            "म",
            "े"
        ],
        [
            "न",
            "<|w|>"
        ],
        [
            "्",
            "र"
        ],
        [
            "न",
            "े<|w|>"
        ],
        [
            "ह",
            "ै"
        ],
        [
            "मे",
            "ं<|w|>"
        ],
        [
            "ो",
            "<|w|>"
        ],
        [
            "र",
            "्"
        ],
        [
            "क",
            "ी<|w|>"
        ],
        [
            "ो",
            "ं<|w|>"
        ],
        [
            ",",
            "<|w|>"
        ],
        [
            "क",
            "<|w|>"
        ],
        [
            "त",
            "<|w|>"
        ],
        [
            "स",
            "े<|w|>"
        ],
        [
            "क",
            "ि"
        ],
        [
            "व",
            "ा"
        ],
        [
            "क",
            "ा"
        ],
        [
            "स",
            "्"
        ],
        [
            "ल",
            "<|w|>"
        ],
        [
            "य",
            "ा<|w|>"
        ],
        [
            "स",
            "<|w|>"
        ],
        [
            "क",
            "ो<|w|>"
        ],
        [
            "्",
            "य"
        ],
        [
            "म",
            "ा"
        ],
        [
            "क",
            "्"
        ],
        [
            "क",
            "ा<|w|>"
        ],
        [
            "ए",
            "<|w|>"
        ],
        [
            "र",
            "ा"
        ],
        [
            "प",
            "्र"
        ],
        [
            "है",
            "।<|w|>"
        ],
        [
            "ल",
            "ि"
        ],
        [
            "व",
            "ि"
        ],
        [
            "म",
            "<|w|>"
        ],
        [
            "स",
            "ा"
        ],
        [
            "ज",
            "ा"
        ],
        [
            "न",
            "ि"
        ],
        [
            "क",
            "र"
        ],
        [
            "न",
            "ा<|w|>"
        ],
        [
            "ब",
            "ा"
        ],
        [
            "ल",
            "ा"
        ],
        [
            "औ",
            "र<|w|>"
        ],
        [
            "य",
            "ा"
        ],
        [
            "क",
            "र<|w|>"
        ],
        [
            "र",
            "ह"
        ],
        [
            "ई",
            "<|w|>"
        ],
        [
            "प",
            "र<|w|>"
        ],
        [
            "व",
            "<|w|>"
        ],
        [
            "त",
            "ा"
        ],
        [
            "कि",
            "<|w|>"
        ],
        [
            "र",
            "ि"
        ],
        [
            "द",
            "<|w|>"
        ],
        [
            "त",
            "ा<|w|>"
        ],
        [
            "र",
            "ी<|w|>"
        ],
        [
            "ह",
            "<|w|>"
        ],
        [
            "द",
            "ि"
        ],
        [
            "त",
            "ि"
        ],
        [
            "ह",
            "ा"
        ],
        [
            "भ",
            "ी<|w|>"
        ],
        [
            "य",
            "<|w|>"
        ],
        [
            "प",
            "ा"
        ],
        [
            "स",
            "ं"
        ],
        [
            "ट",
            "<|w|>"
        ],
        [
            "द",
            "े"
        ],
        [
            "ग",
            "<|w|>"
        ],
        [
            "ह",
            "ो"
        ],
        [
            "क्",
            "ष"
        ],
        [
            "ल",
            "े<|w|>"
        ],
        [
            "त",
            "्"
        ],
        [
            "ज",
            "ि"
        ],
        [
            "न",
            "ा"
        ],
        [
            "म",
            "ि"
        ],
        [
            "ल",
            "े"
        ],
        [
            "ग",
            "ा"
        ],
        [
            "ह",
            "ु"
        ],
        [
            "ह",
            "ी"
        ],
        [
            "ण",
            "<|w|>"
        ],
        [
            "भ",
            "ा"
        ],
        [
            "लि",
            "ए<|w|>"
        ],
        [
            "है",
            "ं"
        ],
        [
            "र",
            "ो"
        ],
        [
            "च",
            "ा"
        ],
        [
            "स",
            "ि"
        ],
        [
            "श",
            "<|w|>"
        ],
        [
            "ज",
            "<|w|>"
        ],
        [
            "त",
            "े<|w|>"
        ],
        [
            "ही",
            "ं<|w|>"
        ],
        [
            "है",
            "<|w|>"
        ],
        [
            "ड",
            "़"
        ],
        [
            "े",
            "ं"
        ],
        [
            "ब",
            "<|w|>"
        ],
        [
            "प",
            "ु"
        ],
        [
            "थ",
            "ा"
        ],
        [
            "इ",
            "स"
        ],
        [
            "न",
            "ी<|w|>"
        ],
        [
            "ध",
            "ि"
        ],
        [
            "क",
            "ो"
        ],
        [
            "न",
            "्"
        ],
        [
            "द",
            "ा"
        ],
        [
            "द",
            "्"
        ],
        [
            "हैं",
            "।<|w|>"
        ],
        [
            "ह",
            "ी<|w|>"
        ],
        [
            "ल",
            "ा<|w|>"
        ],
        [
            "य",
            "ों<|w|>"
        ],
        [
            "न",
            "हीं<|w|>"
        ],
        [
            "ल",
            "ो"
        ],
        [
            "इ",
            "स<|w|>"
        ],
        [
            "ल",
            "ी<|w|>"
        ],
        [
            "्य",
            "<|w|>"
        ],
        [
            "र",
            "ू"
        ],
        [
            "ह",
            "ि"
        ],
        [
            "प",
            "<|w|>"
        ],
        [
            "ी",
            "।<|w|>"
        ],
        [
            "च",
            "<|w|>"
        ],
        [
            "श",
            "ा"
        ],
        [
            "ड",
            "<|w|>"
        ],
        [
            "र",
            "ा<|w|>"
        ],
        [
            "र",
            "ी"
        ],
        [
            "क",
            "ु"
        ],
        [
            "म",
            "ु"
        ],
        [
            "त",
            "ी<|w|>"
        ],
        [
            "ति",
            "<|w|>"
        ],
        [
            "ए",
            "क<|w|>"
        ],
        [
            "्य",
            "ा"
        ],
        [
            "0",
            "<|w|>"
        ],
        [
            "स",
            "ु"
        ],
        [
            "ध",
            "ा"
        ],
        [
            "कर",
            "ने<|w|>"
        ],
        [
            "या",
            "।<|w|>"
        ],
        [
            "कि",
            "या<|w|>"
        ],
        [
            "स",
            "ी<|w|>"
        ],
        [
            "प",
            "ू"
        ],
        [
            "ं",
            "ग"
        ],
        [
            "क",
            "्र"
        ],
        [
            "ह",
            "ो<|w|>"
        ],
        [
            "थ",
            "<|w|>"
        ],
        [
            "अ",
            "प"
        ],
        [
            "त",
            "्र"
        ],
        [
            "न",
            "ों<|w|>"
        ],
        [
            "श",
            "ि"
        ],
        [
            "ज",
            "ा<|w|>"
        ],
        [
            "स",
            "म"
        ],
        [
            "ल",
            "्"
        ],
        [
            "स",
            "ी"
        ],
        [
            "े",
            "।<|w|>"
        ],
        [
            "े",
            "ं<|w|>"
        ],
        [
            "वा",
            "र<|w|>"
        ],
        [
            "स्",
            "थ"
        ],
        [
            "त",
            "क<|w|>"
        ],
        [
            "द",
            "ी<|w|>"
        ],
        [
            "ट",
            "्र"
        ],
        [
            "य",
            "ह<|w|>"
        ],
        [
            "य",
            "ो"
        ],
        [
            "क",
            "े"
        ],
        [
            "स",
            "र"
        ],
        [
            "ि",
            "त<|w|>"
        ],
        [
            "न",
            "े"
        ],
        [
            "बा",
            "द<|w|>"
        ],
        [
            "अ",
            "धि"
        ],
        [
            ".",
            "<|w|>"
        ],
        [
            "अ",
            "न"
        ],
        [
            "ट",
            "ि"
        ],
        [
            "ी",
            "य<|w|>"
        ],
        [
            "ष",
            "्"
        ],
        [
            "ब",
            "ि"
        ],
        [
            "प",
            "ह"
        ],
        [
            "श",
            "्"
        ],
        [
            "म",
            "ं"
        ],
        [
            "स",
            "क"
        ],
        [
            "ं",
            "ग<|w|>"
        ],
        [
            "र",
            "ु"
        ],
        [
            "ग",
            "या<|w|>"
        ],
        [
            "रा",
            "ज"
        ],
        [
            "ओ",
            "ं<|w|>"
        ],
        [
            "ड",
            "ि"
        ],
        [
            "त्",
            "र<|w|>"
        ],
        [
            "का",
            "र्"
        ],
        [
            "सा",
            "थ<|w|>"
        ],
        [
            "का",
            "र<|w|>"
        ],
        [
            "र",
            "े"
        ],
        [
            "क",
            "ह"
        ],
        [
            "ग",
            "ों<|w|>"
        ],
        [
            "ग",
            "्र"
        ],
        [
            "व",
            "र्"
        ],
        [
            "ब",
            "ी"
        ],
        [
            "ब",
            "ता"
        ],
        [
            "का",
            "र"
        ],
        [
            "प",
            "रि"
        ],
        [
            "श",
            "ु"
        ],
        [
            "रह",
            "े<|w|>"
        ],
        [
            "ब",
            "ं"
        ],
        [
            "उ",
            "न्"
        ],
        [
            "त",
            "ो<|w|>"
        ],
        [
            "प",
            "्"
        ],
        [
            "दे",
            "श<|w|>"
        ],
        [
            "म",
            "ी"
        ],
        [
            "स",
            "े"
        ],
        [
            "लो",
            "गों<|w|>"
        ],
        [
            "र",
            "े<|w|>"
        ],
        [
            "उ",
            "न"
        ],
        [
            "व",
            "े"
        ],
        [
            "सि",
            "ं"
        ],
        [
            "प",
            "ी"
        ],
        [
            "ध",
            "<|w|>"
        ],
        [
            "रह",
            "ा<|w|>"
        ],
        [
            "ज",
            "ी"
        ],
        [
            "न",
            "ी"
        ],
        [
            "ट",
            "ी<|w|>"
        ],
        [
            "ख",
            "ा"
        ],
        [
            "य",
            "ु"
        ],
        [
            "ट",
            "ी"
        ],
        [
            "नि",
            "र्"
        ],
        [
            "जा",
            "ए"
        ],
        [
            "द",
            "ु"
        ],
        [
            "है",
            ",<|w|>"
        ],
        [
            "फ",
            "<|w|>"
        ],
        [
            "ह",
            "र<|w|>"
        ],
        [
            "म",
            "ौ"
        ],
        [
            "बता",
            "या<|w|>"
        ],
        [
            "का",
            "री<|w|>"
        ],
        [
            "प",
            "ि"
        ],
        [
            "5",
            "<|w|>"
        ],
        [
            "द",
            "ू"
        ],
        [
            "पु",
            "लि"
        ],
        [
            "च",
            "ु"
        ],
        [
            "श",
            "न<|w|>"
        ],
        [
            "व",
            "ा<|w|>"
        ],
        [
            "ट",
            "र<|w|>"
        ],
        [
            "उ",
            "प"
        ],
        [
            "कह",
            "ा<|w|>"
        ],
        [
            "गा",
            "।<|w|>"
        ],
        [
            "र",
            "ों<|w|>"
        ],
        [
            "रह",
            "ी<|w|>"
        ],
        [
            "ल",
            "ग"
        ],
        [
            "ू",
            "<|w|>"
        ],
        [
            "है",
            "ं<|w|>"
        ],
        [
            "ं",
            "च<|w|>"
        ],
        [
            "हु",
            "ए<|w|>"
        ],
        [
            "ढ",
            "़"
        ],
        [
            "ले",
            "कि"
        ],
        [
            "पुलि",
            "स<|w|>"
        ],
        [
            "इस",
            "के<|w|>"
        ],
        [
            "था",
            "।<|w|>"
        ],
        [
            "त",
            "ी"
        ],
        [
            "च",
            "्"
        ],
        [
            "ट",
            "ा"
        ],
        [
            "ै",
            "ं"
        ],
        [
            "ग",
            "ु"
        ],
        [
            "को",
            "रो"
        ],
        [
            "ट",
            "े"
        ],
        [
            "इ",
            "न<|w|>"
        ],
        [
            "व",
            "ी"
        ],
        [
            "अ",
            "ं"
        ],
        [
            "जि",
            "स"
        ],
        [
            "उ",
            "स"
        ],
        [
            "ड",
            "ा"
        ],
        [
            "लेकि",
            "न<|w|>"
        ],
        [
            "ग",
            "ई<|w|>"
        ],
        [
            "दि",
            "या<|w|>"
        ],
        [
            "हो",
            "ने<|w|>"
        ],
        [
            "ब",
            "्"
        ],
        [
            "ब",
            "े"
        ],
        [
            "वा",
            "ले<|w|>"
        ],
        [
            "हा",
            "ं<|w|>"
        ],
        [
            "द",
            "ा<|w|>"
        ],
        [
            "ए",
            "।<|w|>"
        ],
        [
            "क",
            "ों<|w|>"
        ],
        [
            "च",
            "ि"
        ],
        [
            "ष",
            "<|w|>"
        ],
        [
            "कोरो",
            "ना<|w|>"
        ],
        [
            "पू",
            "र्"
        ],
        [
            "क",
            "र्"
        ],
        [
            "ख",
            "<|w|>"
        ],
        [
            "स्",
            "था"
        ],
        [
            "प",
            "हु"
        ],
        [
            "प",
            "ो"
        ],
        [
            "म",
            "ो"
        ],
        [
            "र",
            ",<|w|>"
        ],
        [
            "ड",
            "ी"
        ],
        [
            "थ",
            "ा<|w|>"
        ],
        [
            "ज",
            "ो<|w|>"
        ],
        [
            "अप",
            "ने<|w|>"
        ],
        [
            "अन",
            "ु"
        ],
        [
            "ध",
            "्य"
        ],
        [
            "स",
            "ो"
        ],
        [
            "ग",
            "र<|w|>"
        ],
        [
            "अ",
            "ब<|w|>"
        ],
        [
            "रू",
            "प<|w|>"
        ],
        [
            "2",
            "0"
        ],
        [
            "क्ष",
            "े"
        ],
        [
            "व",
            "्य"
        ],
        [
            "ग",
            "ि"
        ],
        [
            "म",
            "ा<|w|>"
        ],
        [
            "आ",
            "<|w|>"
        ],
        [
            "पह",
            "ले<|w|>"
        ],
        [
            "फ",
            "ि"
        ],
        [
            "द",
            "र्"
        ],
        [
            "व",
            "े<|w|>"
        ],
        [
            "सिं",
            "ह<|w|>"
        ],
        [
            "ग",
            "या।<|w|>"
        ],
        [
            "द",
            "ो"
        ],
        [
            "ई",
            "।<|w|>"
        ],
        [
            "2",
            "<|w|>"
        ],
        [
            "ज",
            "ी<|w|>"
        ],
        [
            "स्",
            "त"
        ],
        [
            "म",
            "्"
        ],
        [
            "द्",
            "वा"
        ],
        [
            "स",
            "ू"
        ],
        [
            "इ",
            "ं"
        ],
        [
            "कु",
            "मा"
        ],
        [
            "ल",
            "गा"
        ],
        [
            "हो",
            "ं"
        ],
        [
            "र",
            "त<|w|>"
        ],
        [
            "ख",
            "ि"
        ],
        [
            "द्वा",
            "रा<|w|>"
        ],
        [
            "ए",
            "स"
        ],
        [
            "क्ष",
            "ा<|w|>"
        ],
        [
            "ले",
            "कर<|w|>"
        ],
        [
            "र्",
            "थ"
        ],
        [
            "प्र",
            "ा"
        ],
        [
            "द",
            "ौ"
        ],
        [
            "ब",
            "र<|w|>"
        ],
        [
            "द्",
            "र<|w|>"
        ],
        [
            "1",
            "<|w|>"
        ],
        [
            "स",
            "ा<|w|>"
        ],
        [
            "स",
            "भी<|w|>"
        ],
        [
            "प्र",
            "ति"
        ],
        [
            "गा",
            "ं"
        ],
        [
            "र",
            "ख"
        ],
        [
            "छ",
            "<|w|>"
        ],
        [
            "ल",
            "ों<|w|>"
        ],
        [
            "ं",
            "च"
        ],
        [
            "ब",
            "ु"
        ],
        [
            "ल",
            "ी"
        ],
        [
            "ज",
            "न<|w|>"
        ],
        [
            "प",
            "ी<|w|>"
        ],
        [
            "ब",
            "ना"
        ],
        [
            "हों",
            "ने<|w|>"
        ],
        [
            "अधि",
            "क<|w|>"
        ],
        [
            "दि",
            "न<|w|>"
        ],
        [
            "स्",
            "प"
        ],
        [
            "ं",
            ",<|w|>"
        ],
        [
            "ग",
            "ी।<|w|>"
        ],
        [
            "मा",
            "म"
        ],
        [
            "4",
            "<|w|>"
        ],
        [
            "ज",
            "़"
        ],
        [
            "थ",
            "े।<|w|>"
        ],
        [
            "म",
            "ी<|w|>"
        ],
        [
            "पु",
            "र<|w|>"
        ],
        [
            "रह",
            "<|w|>"
        ],
        [
            "सर",
            "कार<|w|>"
        ],
        [
            "ग",
            "ए<|w|>"
        ],
        [
            "दे",
            "श"
        ],
        [
            "उन्",
            "होंने<|w|>"
        ],
        [
            "-",
            "<|w|>"
        ],
        [
            "ट",
            "्"
        ],
        [
            "क्ष",
            "<|w|>"
        ],
        [
            "प",
            "ं"
        ],
        [
            "क",
            "म<|w|>"
        ],
        [
            "र्",
            "ट<|w|>"
        ],
        [
            "क्",
            "त<|w|>"
        ],
        [
            "फ",
            "ा"
        ],
        [
            "य",
            "े<|w|>"
        ],
        [
            "क",
            "रा"
        ],
        [
            "कु",
            "छ<|w|>"
        ],
        [
            "मा",
            "न<|w|>"
        ],
        [
            "ग्र",
            "ा"
        ],
        [
            "व",
            "ै"
        ],
        [
            "9",
            "<|w|>"
        ],
        [
            "भ",
            "ि"
        ],
        [
            "ज",
            "ै"
        ],
        [
            "रू",
            "<|w|>"
        ],
        [
            "ह",
            "ें<|w|>"
        ],
        [
            "क",
            "ं"
        ],
        [
            "3",
            "<|w|>"
        ],
        [
            "मि",
            "ल<|w|>"
        ],
        [
            "रा",
            "न<|w|>"
        ],
        [
            "स्",
            "वा"
        ],
        [
            "कर",
            "ते<|w|>"
        ],
        [
            "श",
            "्र"
        ],
        [
            "कार्",
            "य"
        ],
        [
            "म",
            "हा"
        ],
        [
            ")",
            "<|w|>"
        ],
        [
            "ब",
            "ै"
        ],
        [
            "त्र",
            "ी<|w|>"
        ],
        [
            "ज",
            "ू"
        ],
        [
            "क्षे",
            "त्र<|w|>"
        ],
        [
            "मा",
            "न"
        ],
        [
            "पा",
            "स<|w|>"
        ],
        [
            "ज",
            "ु"
        ],
        [
            "प",
            "े"
        ],
        [
            "8",
            "<|w|>"
        ],
        [
            "ज",
            "्"
        ],
        [
            "वि",
            "का"
        ],
        [
            "थ",
            "ी।<|w|>"
        ],
        [
            "रु",
            "प"
        ],
        [
            "जा",
            "र<|w|>"
        ],
        [
            "का",
            "म<|w|>"
        ],
        [
            "म",
            "ै"
        ],
        [
            "उ",
            "त्"
        ],
        [
            "ए",
            "व"
        ],
        [
            "द",
            "ी"
        ],
        [
            "व",
            "ह<|w|>"
        ],
        [
            "6",
            "<|w|>"
        ],
        [
            "हैं",
            ",<|w|>"
        ],
        [
            "द",
            "ो<|w|>"
        ],
        [
            "कार",
            "ण<|w|>"
        ],
        [
            "भा",
            "ग<|w|>"
        ],
        [
            "सा",
            "ल<|w|>"
        ],
        [
            "क",
            "ई<|w|>"
        ],
        [
            "क",
            "ृ"
        ],
        [
            "लो",
            "ग<|w|>"
        ],
        [
            "एव",
            "ं<|w|>"
        ],
        [
            "ब",
            "ढ़"
        ],
        [
            "ड़",
            "<|w|>"
        ],
        [
            "स",
            "र<|w|>"
        ],
        [
            "त",
            "र"
        ],
        [
            "त",
            "रह<|w|>"
        ],
        [
            "ल",
            "य<|w|>"
        ],
        [
            "जा",
            "न"
        ],
        [
            "य",
            "ू"
        ],
        [
            "को",
            "ई<|w|>"
        ],
        [
            "ं",
            "ड<|w|>"
        ],
        [
            "शु",
            "रू<|w|>"
        ],
        [
            "कुमा",
            "र<|w|>"
        ],
        [
            "च",
            "ी"
        ],
        [
            ":",
            "<|w|>"
        ],
        [
            "घ",
            "र<|w|>"
        ],
        [
            "न",
            ",<|w|>"
        ],
        [
            "दौ",
            "रान<|w|>"
        ],
        [
            "म",
            "री"
        ],
        [
            "स",
            "ब"
        ],
        [
            "बा",
            "र<|w|>"
        ],
        [
            "7",
            "<|w|>"
        ],
        [
            "स्",
            "ट"
        ],
        [
            "स",
            "मा"
        ],
        [
            "सं",
            "क्र"
        ],
        [
            "ज",
            "े<|w|>"
        ],
        [
            "हु",
            "ई<|w|>"
        ],
        [
            "ल",
            "ने<|w|>"
        ],
        [
            "कि",
            "सा"
        ],
        [
            "सम",
            "य<|w|>"
        ],
        [
            "गां",
            "व<|w|>"
        ],
        [
            "त",
            "े"
        ],
        [
            "चा",
            "र<|w|>"
        ],
        [
            "क",
            "ॉ"
        ],
        [
            "म",
            "हि"
        ],
        [
            "ब",
            "ो"
        ],
        [
            "फ",
            "्"
        ],
        [
            "ड",
            "ॉ"
        ],
        [
            "ज",
            "ो"
        ],
        [
            "म",
            "ह"
        ],
        [
            "य",
            "त<|w|>"
        ],
        [
            "क",
            "ी"
        ],
        [
            "ग",
            "ई।<|w|>"
        ],
        [
            "दे",
            "ख"
        ],
        [
            "कर",
            "ना<|w|>"
        ],
        [
            "त",
            "ों<|w|>"
        ],
        [
            "ज",
            "न"
        ],
        [
            "मु",
            "ख"
        ],
        [
            "रि",
            "यों<|w|>"
        ],
        [
            "बा",
            "त<|w|>"
        ],
        [
            "कि",
            "सी<|w|>"
        ],
        [
            "विका",
            "स<|w|>"
        ],
        [
            "श",
            "े"
        ],
        [
            "द",
            "्र"
        ],
        [
            "प्र",
            "भा"
        ],
        [
            "ें",
            "द्र<|w|>"
        ],
        [
            "्य",
            "ो"
        ],
        [
            "जा",
            "ने<|w|>"
        ],
        [
            "च्",
            "च"
        ],
        [
            "उ",
            "न<|w|>"
        ],
        [
            "हि",
            "त<|w|>"
        ],
        [
            "त",
            "र<|w|>"
        ],
        [
            "छ",
            "ा"
        ],
        [
            "उन",
            "के<|w|>"
        ],
        [
            "जा",
            "ंच<|w|>"
        ],
        [
            "अन",
            "्य<|w|>"
        ],
        [
            "सा",
            "म"
        ],
        [
            "स्",
            "व"
        ],
        [
            "च",
            "ौ"
        ],
        [
            "पहु",
            "ंच"
        ],
        [
            "न",
            "गर<|w|>"
        ],
        [
            "ता",
            "र<|w|>"
        ],
        [
            "ें",
            "ग"
        ],
        [
            "ख",
            "ु"
        ],
        [
            "उन्",
            "हें<|w|>"
        ],
        [
            "नि",
            "य"
        ],
        [
            "कि",
            "या।<|w|>"
        ],
        [
            "0",
            "0<|w|>"
        ],
        [
            "मं",
            "त्री<|w|>"
        ],
        [
            "ख",
            "्"
        ],
        [
            "ग",
            "ो"
        ],
        [
            "ल",
            "न<|w|>"
        ],
        [
            "जि",
            "ला<|w|>"
        ],
        [
            "प",
            "ै"
        ],
        [
            "स",
            "न<|w|>"
        ],
        [
            "अप",
            "नी<|w|>"
        ],
        [
            "वा",
            "ई<|w|>"
        ],
        [
            "ल",
            "ॉ"
        ],
        [
            "स",
            "र्"
        ],
        [
            "व",
            "ी<|w|>"
        ],
        [
            "ध्य",
            "क्ष<|w|>"
        ],
        [
            "इ",
            "न"
        ],
        [
            "ज",
            "ब<|w|>"
        ],
        [
            "ज्",
            "ञ"
        ],
        [
            "ल",
            ",<|w|>"
        ],
        [
            "वि",
            "भाग<|w|>"
        ],
        [
            "ग",
            "ी<|w|>"
        ],
        [
            "स्वा",
            "स्थ"
        ],
        [
            "भा",
            "रत<|w|>"
        ],
        [
            "कि",
            "ए<|w|>"
        ],
        [
            "जि",
            "ले<|w|>"
        ],
        [
            "चा",
            "हि"
        ],
        [
            "मा",
            "र्"
        ],
        [
            "ज",
            "े"
        ],
        [
            "का",
            "े<|w|>"
        ],
        [
            "आ",
            "रो"
        ],
        [
            "यो",
            "ग<|w|>"
        ],
        [
            "ट",
            "े<|w|>"
        ],
        [
            "प",
            "र्"
        ],
        [
            "प",
            "ा<|w|>"
        ],
        [
            "व्य",
            "व"
        ],
        [
            "रुप",
            "ए<|w|>"
        ],
        [
            "क",
            "ू"
        ],
        [
            "ं",
            "ड"
        ],
        [
            "सब",
            "से<|w|>"
        ],
        [
            "त",
            "ु"
        ],
        [
            "रा",
            "ष्"
        ],
        [
            "वा",
            "ली<|w|>"
        ],
        [
            "ज",
            "ब"
        ],
        [
            "र",
            "ण<|w|>"
        ],
        [
            "ि",
            "क<|w|>"
        ],
        [
            "य",
            "र"
        ],
        [
            "ता",
            "ल<|w|>"
        ],
        [
            "भ",
            "ू"
        ],
        [
            "स्थ",
            "ि"
        ],
        [
            "श",
            "ी"
        ],
        [
            "टि",
            "व<|w|>"
        ],
        [
            "ड़",
            "ी<|w|>"
        ],
        [
            "्य",
            "ू"
        ],
        [
            "माम",
            "ले<|w|>"
        ],
        [
            "ग",
            "ा<|w|>"
        ],
        [
            "अ",
            "स्प"
        ],
        [
            "भ",
            "ी"
        ],
        [
            "ता",
            "ओं<|w|>"
        ],
        [
            "ड़",
            "<|w|>"
        ],
        [
            "ख",
            "े"
        ],
        [
            "त",
            "ै"
        ],
        [
            "र्",
            "ड<|w|>"
        ],
        [
            "र",
            "ं"
        ],
        [
            "य",
            "हां<|w|>"
        ],
        [
            "अ",
            "व"
        ],
        [
            "लि",
            "या<|w|>"
        ],
        [
            "वि",
            "धा"
        ],
        [
            "दा",
            "न<|w|>"
        ],
        [
            "ह",
            "म<|w|>"
        ],
        [
            "्या",
            "दा<|w|>"
        ],
        [
            "सक",
            "ता<|w|>"
        ],
        [
            "व",
            "न<|w|>"
        ],
        [
            "ब",
            "च्च"
        ],
        [
            "जा",
            "री<|w|>"
        ],
        [
            "आ",
            "ई"
        ],
        [
            "क",
            "ै"
        ],
        [
            "नि",
            "वा"
        ],
        [
            "स्वास्थ",
            "्य<|w|>"
        ],
        [
            "पा",
            "र्"
        ],
        [
            "हु",
            "आ<|w|>"
        ],
        [
            "बै",
            "ठ"
        ],
        [
            "द",
            "र<|w|>"
        ],
        [
            "ए",
            "म"
        ],
        [
            "ब",
            "हु"
        ],
        [
            "जान",
            "कारी<|w|>"
        ],
        [
            "श",
            "हर<|w|>"
        ],
        [
            "है",
            ".<|w|>"
        ],
        [
            "ऐ",
            "से<|w|>"
        ],
        [
            "ण",
            "ा"
        ],
        [
            "यो",
            "ज"
        ],
        [
            "ट",
            "ा<|w|>"
        ],
        [
            "व",
            "र<|w|>"
        ],
        [
            "ड़",
            "ा<|w|>"
        ],
        [
            "ब",
            "जे<|w|>"
        ],
        [
            "रा",
            "म"
        ],
        [
            "प्",
            "त<|w|>"
        ],
        [
            "खि",
            "ला"
        ],
        [
            "न",
            "ो"
        ],
        [
            "ग",
            "त<|w|>"
        ],
        [
            "ए",
            "म<|w|>"
        ],
        [
            "सं",
            "बं"
        ],
        [
            "आ",
            "ई<|w|>"
        ],
        [
            "्र",
            "े"
        ],
        [
            "य",
            "र<|w|>"
        ],
        [
            "ध",
            "न<|w|>"
        ],
        [
            "बी",
            "च<|w|>"
        ],
        [
            "र",
            "त"
        ],
        [
            "दि",
            "<|w|>"
        ],
        [
            "शा",
            "मिल<|w|>"
        ],
        [
            "देश",
            "ों<|w|>"
        ],
        [
            "मि",
            "त<|w|>"
        ],
        [
            "भ",
            "े"
        ],
        [
            "अस्प",
            "ताल<|w|>"
        ],
        [
            "शा",
            "सन<|w|>"
        ],
        [
            "ी",
            ",<|w|>"
        ],
        [
            "भ",
            "<|w|>"
        ],
        [
            "क्र",
            "ि"
        ],
        [
            "वि",
            "द"
        ],
        [
            "स्थ",
            "ित<|w|>"
        ],
        [
            "पा",
            "नी<|w|>"
        ],
        [
            "पो",
            "र्ट<|w|>"
        ],
        [
            "ड",
            "ी<|w|>"
        ],
        [
            "ह",
            "न<|w|>"
        ],
        [
            "ब",
            "द"
        ],
        [
            "नि",
            "या<|w|>"
        ],
        [
            "2",
            "0<|w|>"
        ],
        [
            "ज्ञ",
            "ा"
        ],
        [
            "इस",
            "से<|w|>"
        ],
        [
            "य",
            "न<|w|>"
        ],
        [
            "अ",
            "भि"
        ],
        [
            "कं",
            "प"
        ],
        [
            "प",
            "ॉ"
        ],
        [
            "ं",
            "बर<|w|>"
        ],
        [
            "दो",
            "नों<|w|>"
        ],
        [
            "जा",
            "ता<|w|>"
        ],
        [
            "ला",
            "ख<|w|>"
        ],
        [
            "सू",
            "च"
        ],
        [
            "क्",
            "टर<|w|>"
        ],
        [
            "जाए",
            "गा।<|w|>"
        ],
        [
            "ि",
            "यों<|w|>"
        ],
        [
            "स",
            "ह"
        ],
        [
            "व",
            "हीं<|w|>"
        ],
        [
            "व",
            "्या"
        ],
        [
            "ड",
            "े"
        ],
        [
            "ती",
            "न<|w|>"
        ],
        [
            "ं",
            "।<|w|>"
        ],
        [
            "ह",
            "जार<|w|>"
        ],
        [
            "टी",
            "म<|w|>"
        ],
        [
            "ओ",
            "र<|w|>"
        ],
        [
            "ं",
            "ट<|w|>"
        ],
        [
            "ओ",
            "<|w|>"
        ],
        [
            "निर्",
            "मा"
        ],
        [
            "द",
            "न<|w|>"
        ],
        [
            "फ",
            "़"
        ],
        [
            "1",
            "0<|w|>"
        ],
        [
            "ज",
            "्यादा<|w|>"
        ],
        [
            "रा",
            "त<|w|>"
        ],
        [
            "्र",
            "ा"
        ],
        [
            "म",
            "ण<|w|>"
        ],
        [
            "सा",
            "र<|w|>"
        ],
        [
            "दि",
            "या।<|w|>"
        ],
        [
            "उस",
            "के<|w|>"
        ],
        [
            "घ",
            "ा"
        ],
        [
            "स्थ",
            "ा<|w|>"
        ],
        [
            "दर्",
            "ज<|w|>"
        ],
        [
            "ह",
            "त<|w|>"
        ],
        [
            "वि",
            "श्"
        ],
        [
            "स्",
            "ट<|w|>"
        ],
        [
            "या",
            "ं<|w|>"
        ],
        [
            "दा",
            "र<|w|>"
        ],
        [
            "पूर्",
            "व<|w|>"
        ],
        [
            "इस",
            "में<|w|>"
        ],
        [
            "बं",
            "द<|w|>"
        ],
        [
            "तै",
            "या"
        ],
        [
            "फ",
            "ो"
        ],
        [
            "ट्र",
            "े"
        ],
        [
            "कार",
            "्र"
        ],
        [
            "पि",
            "छ"
        ],
        [
            "मा",
            "री<|w|>"
        ],
        [
            "फि",
            "र<|w|>"
        ],
        [
            "द",
            "स्"
        ],
        [
            "आ",
            "ने<|w|>"
        ],
        [
            "सक",
            "ते<|w|>"
        ],
        [
            "द",
            "े<|w|>"
        ],
        [
            "ध",
            "ी<|w|>"
        ],
        [
            "घ",
            "ट"
        ],
        [
            "ठ",
            "ा"
        ],
        [
            "ं",
            "कि<|w|>"
        ],
        [
            "ँ",
            "<|w|>"
        ],
        [
            "सु",
            "र"
        ],
        [
            "ग",
            "ं"
        ],
        [
            "बहु",
            "त<|w|>"
        ],
        [
            "आ",
            "र"
        ],
        [
            "ख्",
            "या<|w|>"
        ],
        [
            "म",
            "ू"
        ],
        [
            "इ",
            "ला"
        ],
        [
            "श",
            "ो"
        ],
        [
            "दे",
            "ने<|w|>"
        ],
        [
            "स",
            "हित<|w|>"
        ],
        [
            "अ",
            "भी<|w|>"
        ],
        [
            "ज",
            "ों<|w|>"
        ],
        [
            "ि",
            "<|w|>"
        ],
        [
            "कर",
            "ी"
        ],
        [
            "कार्र",
            "वाई<|w|>"
        ],
        [
            "सं",
            "ख्या<|w|>"
        ],
        [
            "ड़",
            "े<|w|>"
        ],
        [
            "ज",
            "ग"
        ],
        [
            "या",
            ",<|w|>"
        ],
        [
            "क्",
            "ति<|w|>"
        ],
        [
            "20",
            "1"
        ],
        [
            "क",
            "ल<|w|>"
        ],
        [
            "पं",
            "चा"
        ],
        [
            "फ",
            "ै"
        ],
        [
            "ल",
            "क्ष"
        ],
        [
            "त",
            "था<|w|>"
        ],
        [
            "वा",
            "यर"
        ],
        [
            "क्र",
            "म<|w|>"
        ],
        [
            "विद",
            "्या"
        ],
        [
            "जिस",
            "में<|w|>"
        ],
        [
            "ग",
            "ए।<|w|>"
        ],
        [
            "धा",
            "र<|w|>"
        ],
        [
            "ल",
            "ं"
        ],
        [
            "धा",
            "न<|w|>"
        ],
        [
            "ज",
            "रू"
        ],
        [
            "नि",
            "क<|w|>"
        ],
        [
            "स्",
            "कू"
        ],
        [
            "धि",
            "<|w|>"
        ],
        [
            "पूर्",
            "ण<|w|>"
        ],
        [
            "व",
            "ल<|w|>"
        ],
        [
            "छ",
            "ो"
        ],
        [
            "व",
            "ज"
        ],
        [
            "शि",
            "क्ष"
        ],
        [
            "क",
            "ी।<|w|>"
        ],
        [
            "दु",
            "का"
        ],
        [
            "रि",
            "पोर्ट<|w|>"
        ],
        [
            "र",
            "वि"
        ],
        [
            "उन",
            "की<|w|>"
        ],
        [
            "च",
            "े"
        ],
        [
            "श",
            "र्"
        ],
        [
            "ब",
            "ह<|w|>"
        ],
        [
            "बा",
            "इ"
        ],
        [
            "ड़",
            "ी<|w|>"
        ],
        [
            "था",
            "ना<|w|>"
        ],
        [
            "य",
            "क<|w|>"
        ],
        [
            "ना",
            "व<|w|>"
        ],
        [
            "रि",
            "त<|w|>"
        ],
        [
            "राज",
            "्य<|w|>"
        ],
        [
            "ौ",
            "र<|w|>"
        ],
        [
            "प",
            "री"
        ],
        [
            "मौ",
            "त<|w|>"
        ],
        [
            "यु",
            "क्त<|w|>"
        ],
        [
            "न",
            "ए<|w|>"
        ],
        [
            "ज",
            "र<|w|>"
        ],
        [
            "हो",
            "ती<|w|>"
        ],
        [
            "आ",
            "ं"
        ],
        [
            "ब",
            "ी<|w|>"
        ],
        [
            "आ",
            "प"
        ],
        [
            "ट्र",
            "ीय<|w|>"
        ],
        [
            "मि",
            "ल"
        ],
        [
            "जू",
            "द<|w|>"
        ],
        [
            "ल",
            "ग<|w|>"
        ],
        [
            "अ",
            "ला"
        ],
        [
            "ए",
            "ं<|w|>"
        ],
        [
            "ंग",
            "्रे"
        ],
        [
            "ग",
            "े"
        ],
        [
            "रा",
            "म<|w|>"
        ],
        [
            "ए",
            ",<|w|>"
        ],
        [
            "उ",
            "से<|w|>"
        ],
        [
            "थ",
            "ी<|w|>"
        ],
        [
            "ना",
            "म<|w|>"
        ],
        [
            "सु",
            "बह<|w|>"
        ],
        [
            "ठ",
            "<|w|>"
        ],
        [
            "दु",
            "निया<|w|>"
        ],
        [
            "अधि",
            "का"
        ],
        [
            "जि",
            "टिव<|w|>"
        ],
        [
            "पिछ",
            "ले<|w|>"
        ],
        [
            "यु",
            "व"
        ],
        [
            "निवा",
            "सी<|w|>"
        ],
        [
            "हो",
            "ता<|w|>"
        ],
        [
            "क",
            ",<|w|>"
        ],
        [
            "इस",
            "ी<|w|>"
        ],
        [
            "साम",
            "ने<|w|>"
        ],
        [
            "ब",
            "ैं"
        ],
        [
            "हा",
            "र<|w|>"
        ],
        [
            "करी",
            "ब<|w|>"
        ],
        [
            "स्",
            "त<|w|>"
        ],
        [
            "निर्मा",
            "ण<|w|>"
        ],
        [
            "महि",
            "ला<|w|>"
        ],
        [
            "कार्",
            "य<|w|>"
        ],
        [
            "ला",
            "इन<|w|>"
        ],
        [
            "क",
            "म"
        ],
        [
            "ति",
            "यों<|w|>"
        ],
        [
            "खिला",
            "फ<|w|>"
        ],
        [
            "स्थि",
            "ति<|w|>"
        ],
        [
            "किसा",
            "नों<|w|>"
        ],
        [
            "प्र",
            "देश<|w|>"
        ],
        [
            "ंग",
            "े।<|w|>"
        ],
        [
            "फ",
            "ी"
        ],
        [
            "स्",
            "ता"
        ],
        [
            "वर्",
            "ष<|w|>"
        ],
        [
            "त्र",
            "ों<|w|>"
        ],
        [
            "स",
            "ै"
        ],
        [
            "फ",
            "ी<|w|>"
        ],
        [
            "ची",
            "न<|w|>"
        ]
    ]
}