{
    "vocab_size": 1000,
    "special_tokens": [
        "<|PAD|>",
        "<|UNK|>",
        "<|SOS|>",
        "<|EOS|>"
    ],
    "eow_token": "<|w|>",
    "token_to_id": {
        "<|PAD|>": 0,
        "<|UNK|>": 1,
        "<|SOS|>": 2,
        "<|EOS|>": 3,
        "<|w|>": 4,
        "\t": 5,
        "\n": 6,
        "\r": 7,
        "!": 8,
        "\"": 9,
        "#": 10,
        "$": 11,
        "%": 12,
        "&": 13,
        "'": 14,
        "(": 15,
        ")": 16,
        "*": 17,
        "+": 18,
        ",": 19,
        "-": 20,
        ".": 21,
        "/": 22,
        "0": 23,
        "1": 24,
        "2": 25,
        "3": 26,
        "4": 27,
        "5": 28,
        "6": 29,
        "7": 30,
        "8": 31,
        "9": 32,
        ":": 33,
        ";": 34,
        "<": 35,
        "=": 36,
        ">": 37,
        "?": 38,
        "@": 39,
        "A": 40,
        "B": 41,
        "C": 42,
        "D": 43,
        "E": 44,
        "F": 45,
        "G": 46,
        "H": 47,
        "I": 48,
        "J": 49,
        "K": 50,
        "L": 51,
        "M": 52,
        "N": 53,
        "O": 54,
        "P": 55,
        "Q": 56,
        "R": 57,
        "S": 58,
        "T": 59,
        "U": 60,
        "V": 61,
        "W": 62,
        "X": 63,
        "Y": 64,
        "Z": 65,
        "[": 66,
        "\\": 67,
        "]": 68,
        "^": 69,
        "_": 70,
        "`": 71,
        "a": 72,
        "b": 73,
        "c": 74,
        "d": 75,
        "e": 76,
        "f": 77,
        "g": 78,
        "h": 79,
        "i": 80,
        "j": 81,
        "k": 82,
        "l": 83,
        "m": 84,
        "n": 85,
        "o": 86,
        "p": 87,
        "q": 88,
        "r": 89,
        "s": 90,
        "t": 91,
        "u": 92,
        "v": 93,
        "w": 94,
        "x": 95,
        "y": 96,
        "z": 97,
        "{": 98,
        "|": 99,
        "}": 100,
        "~": 101,
        "£": 102,
        "¥": 103,
        "¨": 104,
        "°": 105,
        "·": 106,
        "º": 107,
        "Á": 108,
        "Ã": 109,
        "í": 110,
        "ऀ": 111,
        "ँ": 112,
        "ं": 113,
        "ः": 114,
        "ऄ": 115,
        "अ": 116,
        "आ": 117,
        "इ": 118,
        "ई": 119,
        "उ": 120,
        "ऊ": 121,
        "ऋ": 122,
        "ऌ": 123,
        "ऍ": 124,
        "ऎ": 125,
        "ए": 126,
        "ऐ": 127,
        "ऑ": 128,
        "ऒ": 129,
        "ओ": 130,
        "औ": 131,
        "क": 132,
        "ख": 133,
        "ग": 134,
        "घ": 135,
        "ङ": 136,
        "च": 137,
        "छ": 138,
        "ज": 139,
        "झ": 140,
        "ञ": 141,
        "ट": 142,
        "ठ": 143,
        "ड": 144,
        "ढ": 145,
        "ण": 146,
        "त": 147,
        "थ": 148,
        "द": 149,
        "ध": 150,
        "न": 151,
        "ऩ": 152,
        "प": 153,
        "फ": 154,
        "ब": 155,
        "भ": 156,
        "म": 157,
        "य": 158,
        "र": 159,
        "ऱ": 160,
        "ल": 161,
        "ळ": 162,
        "ऴ": 163,
        "व": 164,
        "श": 165,
        "ष": 166,
        "स": 167,
        "ह": 168,
        "ऺ": 169,
        "ऻ": 170,
        "़": 171,
        "ऽ": 172,
        "ा": 173,
        "ि": 174,
        "ी": 175,
        "ु": 176,
        "ू": 177,
        "ृ": 178,
        "ॄ": 179,
        "ॅ": 180,
        "ॆ": 181,
        "े": 182,
        "ै": 183,
        "ॉ": 184,
        "ॊ": 185,
        "ो": 186,
        "ौ": 187,
        "्": 188,
        "ॎ": 189,
        "ॏ": 190,
        "ॐ": 191,
        "॑": 192,
        "॒": 193,
        "॓": 194,
        "॔": 195,
        "ॕ": 196,
        "ॖ": 197,
        "ॗ": 198,
        "क़": 199,
        "ख़": 200,
        "ग़": 201,
        "ज़": 202,
        "ड़": 203,
        "ढ़": 204,
        "फ़": 205,
        "य़": 206,
        "ॠ": 207,
        "ॡ": 208,
        "ॢ": 209,
        "ॣ": 210,
        "।": 211,
        "॥": 212,
        "०": 213,
        "१": 214,
        "२": 215,
        "३": 216,
        "४": 217,
        "५": 218,
        "६": 219,
        "७": 220,
        "८": 221,
        "९": 222,
        "॰": 223,
        "ॱ": 224,
        "ॲ": 225,
        "ॳ": 226,
        "ॴ": 227,
        "ॵ": 228,
        "ॶ": 229,
        "ॷ": 230,
        "ॸ": 231,
        "ॹ": 232,
        "ॺ": 233,
        "ॻ": 234,
        "ॼ": 235,
        "ॽ": 236,
        "ॾ": 237,
        "ॿ": 238,
        "​": 239,
        "‌": 240,
        "‍": 241,
        "–": 242,
        "—": 243,
        "‘": 244,
        "’": 245,
        "“": 246,
        "”": 247,
        "•": 248,
        "€": 249,
        "₹": 250,
        "●": 251,
        "￼": 252,
        "�": 253,
        "💓": 254,
        "🖤": 255,
        "😂": 256,
        "😻": 257,
        "े<|w|>": 258,
        "ा<|w|>": 259,
        "ी<|w|>": 260,
        "र<|w|>": 261,
        "ं<|w|>": 262,
        "के<|w|>": 263,
        "।<|w|>": 264,
        "मे": 265,
        "न<|w|>": 266,
        "्र": 267,
        "ने<|w|>": 268,
        "है": 269,
        "में<|w|>": 270,
        "ो<|w|>": 271,
        "र्": 272,
        "की<|w|>": 273,
        "ों<|w|>": 274,
        ",<|w|>": 275,
        "क<|w|>": 276,
        "त<|w|>": 277,
        "से<|w|>": 278,
        "कि": 279,
        "वा": 280,
        "का": 281,
        "स्": 282,
        "ल<|w|>": 283,
        "या<|w|>": 284,
        "स<|w|>": 285,
        "को<|w|>": 286,
        "्य": 287,
        "मा": 288,
        "क्": 289,
        "का<|w|>": 290,
        "ए<|w|>": 291,
        "रा": 292,
        "प्र": 293,
        "है।<|w|>": 294,
        "लि": 295,
        "वि": 296,
        "म<|w|>": 297,
        "सा": 298,
        "जा": 299,
        "नि": 300,
        "कर": 301,
        "ना<|w|>": 302,
        "बा": 303,
        "ला": 304,
        "और<|w|>": 305,
        "या": 306,
        "कर<|w|>": 307,
        "रह": 308,
        "ई<|w|>": 309,
        "पर<|w|>": 310,
        "व<|w|>": 311,
        "ता": 312,
        "कि<|w|>": 313,
        "रि": 314,
        "द<|w|>": 315,
        "ता<|w|>": 316,
        "री<|w|>": 317,
        "ह<|w|>": 318,
        "दि": 319,
        "ति": 320,
        "हा": 321,
        "भी<|w|>": 322,
        "य<|w|>": 323,
        "पा": 324,
        "सं": 325,
        "ट<|w|>": 326,
        "दे": 327,
        "ग<|w|>": 328,
        "हो": 329,
        "क्ष": 330,
        "ले<|w|>": 331,
        "त्": 332,
        "जि": 333,
        "ना": 334,
        "मि": 335,
        "ले": 336,
        "गा": 337,
        "हु": 338,
        "ही": 339,
        "ण<|w|>": 340,
        "भा": 341,
        "लिए<|w|>": 342,
        "हैं": 343,
        "रो": 344,
        "चा": 345,
        "सि": 346,
        "श<|w|>": 347,
        "ज<|w|>": 348,
        "ते<|w|>": 349,
        "हीं<|w|>": 350,
        "है<|w|>": 351,
        "ड़": 352,
        "ें": 353,
        "ब<|w|>": 354,
        "पु": 355,
        "था": 356,
        "इस": 357,
        "नी<|w|>": 358,
        "धि": 359,
        "को": 360,
        "न्": 361,
        "दा": 362,
        "द्": 363,
        "हैं।<|w|>": 364,
        "ही<|w|>": 365,
        "ला<|w|>": 366,
        "यों<|w|>": 367,
        "नहीं<|w|>": 368,
        "लो": 369,
        "इस<|w|>": 370,
        "ली<|w|>": 371,
        "्य<|w|>": 372,
        "रू": 373,
        "हि": 374,
        "प<|w|>": 375,
        "ी।<|w|>": 376,
        "च<|w|>": 377,
        "शा": 378,
        "ड<|w|>": 379,
        "रा<|w|>": 380,
        "री": 381,
        "कु": 382,
        "मु": 383,
        "ती<|w|>": 384,
        "ति<|w|>": 385,
        "एक<|w|>": 386,
        "्या": 387,
        "0<|w|>": 388,
        "सु": 389,
        "धा": 390,
        "करने<|w|>": 391,
        "या।<|w|>": 392,
        "किया<|w|>": 393,
        "सी<|w|>": 394,
        "पू": 395,
        "ंग": 396,
        "क्र": 397,
        "हो<|w|>": 398,
        "थ<|w|>": 399,
        "अप": 400,
        "त्र": 401,
        "नों<|w|>": 402,
        "शि": 403,
        "जा<|w|>": 404,
        "सम": 405,
        "ल्": 406,
        "सी": 407,
        "े।<|w|>": 408,
        "ें<|w|>": 409,
        "वार<|w|>": 410,
        "स्थ": 411,
        "तक<|w|>": 412,
        "दी<|w|>": 413,
        "ट्र": 414,
        "यह<|w|>": 415,
        "यो": 416,
        "के": 417,
        "सर": 418,
        "ित<|w|>": 419,
        "ने": 420,
        "बाद<|w|>": 421,
        "अधि": 422,
        ".<|w|>": 423,
        "अन": 424,
        "टि": 425,
        "ीय<|w|>": 426,
        "ष्": 427,
        "बि": 428,
        "पह": 429,
        "श्": 430,
        "मं": 431,
        "सक": 432,
        "ंग<|w|>": 433,
        "रु": 434,
        "गया<|w|>": 435,
        "राज": 436,
        "ओं<|w|>": 437,
        "डि": 438,
        "त्र<|w|>": 439,
        "कार्": 440,
        "साथ<|w|>": 441,
        "कार<|w|>": 442,
        "रे": 443,
        "कह": 444,
        "गों<|w|>": 445,
        "ग्र": 446,
        "वर्": 447,
        "बी": 448,
        "बता": 449,
        "कार": 450,
        "परि": 451,
        "शु": 452,
        "रहे<|w|>": 453,
        "बं": 454,
        "उन्": 455,
        "तो<|w|>": 456,
        "प्": 457,
        "देश<|w|>": 458,
        "मी": 459,
        "से": 460,
        "लोगों<|w|>": 461,
        "रे<|w|>": 462,
        "उन": 463,
        "वे": 464,
        "सिं": 465,
        "पी": 466,
        "ध<|w|>": 467,
        "रहा<|w|>": 468,
        "जी": 469,
        "नी": 470,
        "टी<|w|>": 471,
        "खा": 472,
        "यु": 473,
        "टी": 474,
        "निर्": 475,
        "जाए": 476,
        "दु": 477,
        "है,<|w|>": 478,
        "फ<|w|>": 479,
        "हर<|w|>": 480,
        "मौ": 481,
        "बताया<|w|>": 482,
        "कारी<|w|>": 483,
        "पि": 484,
        "5<|w|>": 485,
        "दू": 486,
        "पुलि": 487,
        "चु": 488,
        "शन<|w|>": 489,
        "वा<|w|>": 490,
        "टर<|w|>": 491,
        "उप": 492,
        "कहा<|w|>": 493,
        "गा।<|w|>": 494,
        "रों<|w|>": 495,
        "रही<|w|>": 496,
        "लग": 497,
        "ू<|w|>": 498,
        "हैं<|w|>": 499,
        "ंच<|w|>": 500,
        "हुए<|w|>": 501,
        "ढ़": 502,
        "लेकि": 503,
        "पुलिस<|w|>": 504,
        "इसके<|w|>": 505,
        "था।<|w|>": 506,
        "ती": 507,
        "च्": 508,
        "टा": 509,
        "ैं": 510,
        "गु": 511,
        "कोरो": 512,
        "टे": 513,
        "इन<|w|>": 514,
        "वी": 515,
        "अं": 516,
        "जिस": 517,
        "उस": 518,
        "डा": 519,
        "लेकिन<|w|>": 520,
        "गई<|w|>": 521,
        "दिया<|w|>": 522,
        "होने<|w|>": 523,
        "ब्": 524,
        "बे": 525,
        "वाले<|w|>": 526,
        "हां<|w|>": 527,
        "दा<|w|>": 528,
        "ए।<|w|>": 529,
        "कों<|w|>": 530,
        "चि": 531,
        "ष<|w|>": 532,
        "कोरोना<|w|>": 533,
        "पूर्": 534,
        "कर्": 535,
        "ख<|w|>": 536,
        "स्था": 537,
        "पहु": 538,
        "पो": 539,
        "मो": 540,
        "र,<|w|>": 541,
        "डी": 542,
        "था<|w|>": 543,
        "जो<|w|>": 544,
        "अपने<|w|>": 545,
        "अनु": 546,
        "ध्य": 547,
        "सो": 548,
        "गर<|w|>": 549,
        "अब<|w|>": 550,
        "रूप<|w|>": 551,
        "20": 552,
        "क्षे": 553,
        "व्य": 554,
        "गि": 555,
        "मा<|w|>": 556,
        "आ<|w|>": 557,
        "पहले<|w|>": 558,
        "फि": 559,
        "दर्": 560,
        "वे<|w|>": 561,
        "सिंह<|w|>": 562,
        "गया।<|w|>": 563,
        "दो": 564,
        "ई।<|w|>": 565,
        "2<|w|>": 566,
        "जी<|w|>": 567,
        "स्त": 568,
        "म्": 569,
        "द्वा": 570,
        "सू": 571,
        "इं": 572,
        "कुमा": 573,
        "लगा": 574,
        "हों": 575,
        "रत<|w|>": 576,
        "खि": 577,
        "द्वारा<|w|>": 578,
        "एस": 579,
        "क्षा<|w|>": 580,
        "लेकर<|w|>": 581,
        "र्थ": 582,
        "प्रा": 583,
        "दौ": 584,
        "बर<|w|>": 585,
        "द्र<|w|>": 586,
        "1<|w|>": 587,
        "सा<|w|>": 588,
        "सभी<|w|>": 589,
        "प्रति": 590,
        "गां": 591,
        "रख": 592,
        "छ<|w|>": 593,
        "लों<|w|>": 594,
        "ंच": 595,
        "बु": 596,
        "ली": 597,
        "जन<|w|>": 598,
        "पी<|w|>": 599,
        "बना": 600,
        "होंने<|w|>": 601,
        "अधिक<|w|>": 602,
        "दिन<|w|>": 603,
        "स्प": 604,
        "ं,<|w|>": 605,
        "गी।<|w|>": 606,
        "माम": 607,
        "4<|w|>": 608,
        "ज़": 609,
        "थे।<|w|>": 610,
        "मी<|w|>": 611,
        "पुर<|w|>": 612,
        "रह<|w|>": 613,
        "सरकार<|w|>": 614,
        "गए<|w|>": 615,
        "देश": 616,
        "उन्होंने<|w|>": 617,
        "-<|w|>": 618,
        "ट्": 619,
        "क्ष<|w|>": 620,
        "पं": 621,
        "कम<|w|>": 622,
        "र्ट<|w|>": 623,
        "क्त<|w|>": 624,
        "फा": 625,
        "ये<|w|>": 626,
        "करा": 627,
        "कुछ<|w|>": 628,
        "मान<|w|>": 629,
        "ग्रा": 630,
        "वै": 631,
        "9<|w|>": 632,
        "भि": 633,
        "जै": 634,
        "रू<|w|>": 635,
        "हें<|w|>": 636,
        "कं": 637,
        "3<|w|>": 638,
        "मिल<|w|>": 639,
        "रान<|w|>": 640,
        "स्वा": 641,
        "करते<|w|>": 642,
        "श्र": 643,
        "कार्य": 644,
        "महा": 645,
        ")<|w|>": 646,
        "बै": 647,
        "त्री<|w|>": 648,
        "जू": 649,
        "क्षेत्र<|w|>": 650,
        "मान": 651,
        "पास<|w|>": 652,
        "जु": 653,
        "पे": 654,
        "8<|w|>": 655,
        "ज्": 656,
        "विका": 657,
        "थी।<|w|>": 658,
        "रुप": 659,
        "जार<|w|>": 660,
        "काम<|w|>": 661,
        "मै": 662,
        "उत्": 663,
        "एव": 664,
        "दी": 665,
        "वह<|w|>": 666,
        "6<|w|>": 667,
        "हैं,<|w|>": 668,
        "दो<|w|>": 669,
        "कारण<|w|>": 670,
        "भाग<|w|>": 671,
        "साल<|w|>": 672,
        "कई<|w|>": 673,
        "कृ": 674,
        "लोग<|w|>": 675,
        "एवं<|w|>": 676,
        "बढ़": 677,
        "ड़<|w|>": 678,
        "सर<|w|>": 679,
        "तर": 680,
        "तरह<|w|>": 681,
        "लय<|w|>": 682,
        "जान": 683,
        "यू": 684,
        "कोई<|w|>": 685,
        "ंड<|w|>": 686,
        "शुरू<|w|>": 687,
        "कुमार<|w|>": 688,
        "ची": 689,
        ":<|w|>": 690,
        "घर<|w|>": 691,
        "न,<|w|>": 692,
        "दौरान<|w|>": 693,
        "मरी": 694,
        "सब": 695,
        "बार<|w|>": 696,
        "7<|w|>": 697,
        "स्ट": 698,
        "समा": 699,
        "संक्र": 700,
        "जे<|w|>": 701,
        "हुई<|w|>": 702,
        "लने<|w|>": 703,
        "किसा": 704,
        "समय<|w|>": 705,
        "गांव<|w|>": 706,
        "ते": 707,
        "चार<|w|>": 708,
        "कॉ": 709,
        "महि": 710,
        "बो": 711,
        "फ्": 712,
        "डॉ": 713,
        "जो": 714,
        "मह": 715,
        "यत<|w|>": 716,
        "की": 717,
        "गई।<|w|>": 718,
        "देख": 719,
        "करना<|w|>": 720,
        "तों<|w|>": 721,
        "जन": 722,
        "मुख": 723,
        "रियों<|w|>": 724,
        "बात<|w|>": 725,
        "किसी<|w|>": 726,
        "विकास<|w|>": 727,
        "शे": 728,
        "द्र": 729,
        "प्रभा": 730,
        "ेंद्र<|w|>": 731,
        "्यो": 732,
        "जाने<|w|>": 733,
        "च्च": 734,
        "उन<|w|>": 735,
        "हित<|w|>": 736,
        "तर<|w|>": 737,
        "छा": 738,
        "उनके<|w|>": 739,
        "जांच<|w|>": 740,
        "अन्य<|w|>": 741,
        "साम": 742,
        "स्व": 743,
        "चौ": 744,
        "पहुंच": 745,
        "नगर<|w|>": 746,
        "तार<|w|>": 747,
        "ेंग": 748,
        "खु": 749,
        "उन्हें<|w|>": 750,
        "निय": 751,
        "किया।<|w|>": 752,
        "00<|w|>": 753,
        "मंत्री<|w|>": 754,
        "ख्": 755,
        "गो": 756,
        "लन<|w|>": 757,
        "जिला<|w|>": 758,
        "पै": 759,
        "सन<|w|>": 760,
        "अपनी<|w|>": 761,
        "वाई<|w|>": 762,
        "लॉ": 763,
        "सर्": 764,
        "वी<|w|>": 765,
        "ध्यक्ष<|w|>": 766,
        "इन": 767,
        "जब<|w|>": 768,
        "ज्ञ": 769,
        "ल,<|w|>": 770,
        "विभाग<|w|>": 771,
        "गी<|w|>": 772,
        "स्वास्थ": 773,
        "भारत<|w|>": 774,
        "किए<|w|>": 775,
        "जिले<|w|>": 776,
        "चाहि": 777,
        "मार्": 778,
        "जे": 779,
        "काे<|w|>": 780,
        "आरो": 781,
        "योग<|w|>": 782,
        "टे<|w|>": 783,
        "पर्": 784,
        "पा<|w|>": 785,
        "व्यव": 786,
        "रुपए<|w|>": 787,
        "कू": 788,
        "ंड": 789,
        "सबसे<|w|>": 790,
        "तु": 791,
        "राष्": 792,
        "वाली<|w|>": 793,
        "जब": 794,
        "रण<|w|>": 795,
        "िक<|w|>": 796,
        "यर": 797,
        "ताल<|w|>": 798,
        "भू": 799,
        "स्थि": 800,
        "शी": 801,
        "टिव<|w|>": 802,
        "ड़ी<|w|>": 803,
        "्यू": 804,
        "मामले<|w|>": 805,
        "गा<|w|>": 806,
        "अस्प": 807,
        "भी": 808,
        "ताओं<|w|>": 809,
        "ड़<|w|>": 810,
        "खे": 811,
        "तै": 812,
        "र्ड<|w|>": 813,
        "रं": 814,
        "यहां<|w|>": 815,
        "अव": 816,
        "लिया<|w|>": 817,
        "विधा": 818,
        "दान<|w|>": 819,
        "हम<|w|>": 820,
        "्यादा<|w|>": 821,
        "सकता<|w|>": 822,
        "वन<|w|>": 823,
        "बच्च": 824,
        "जारी<|w|>": 825,
        "आई": 826,
        "कै": 827,
        "निवा": 828,
        "स्वास्थ्य<|w|>": 829,
        "पार्": 830,
        "हुआ<|w|>": 831,
        "बैठ": 832,
        "दर<|w|>": 833,
        "एम": 834,
        "बहु": 835,
        "जानकारी<|w|>": 836,
        "शहर<|w|>": 837,
        "है.<|w|>": 838,
        "ऐसे<|w|>": 839,
        "णा": 840,
        "योज": 841,
        "टा<|w|>": 842,
        "वर<|w|>": 843,
        "ड़ा<|w|>": 844,
        "बजे<|w|>": 845,
        "राम": 846,
        "प्त<|w|>": 847,
        "खिला": 848,
        "नो": 849,
        "गत<|w|>": 850,
        "एम<|w|>": 851,
        "संबं": 852,
        "आई<|w|>": 853,
        "्रे": 854,
        "यर<|w|>": 855,
        "धन<|w|>": 856,
        "बीच<|w|>": 857,
        "रत": 858,
        "दि<|w|>": 859,
        "शामिल<|w|>": 860,
        "देशों<|w|>": 861,
        "मित<|w|>": 862,
        "भे": 863,
        "अस्पताल<|w|>": 864,
        "शासन<|w|>": 865,
        "ी,<|w|>": 866,
        "भ<|w|>": 867,
        "क्रि": 868,
        "विद": 869,
        "स्थित<|w|>": 870,
        "पानी<|w|>": 871,
        "पोर्ट<|w|>": 872,
        "डी<|w|>": 873,
        "हन<|w|>": 874,
        "बद": 875,
        "निया<|w|>": 876,
        "20<|w|>": 877,
        "ज्ञा": 878,
        "इससे<|w|>": 879,
        "यन<|w|>": 880,
        "अभि": 881,
        "कंप": 882,
        "पॉ": 883,
        "ंबर<|w|>": 884,
        "दोनों<|w|>": 885,
        "जाता<|w|>": 886,
        "लाख<|w|>": 887,
        "सूच": 888,
        "क्टर<|w|>": 889,
        "जाएगा।<|w|>": 890,
        "ियों<|w|>": 891,
        "सह": 892,
        "वहीं<|w|>": 893,
        "व्या": 894,
        "डे": 895,
        "तीन<|w|>": 896,
        "ं।<|w|>": 897,
        "हजार<|w|>": 898,
        "टीम<|w|>": 899,
        "ओर<|w|>": 900,
        "ंट<|w|>": 901,
        "ओ<|w|>": 902,
        "निर्मा": 903,
        "दन<|w|>": 904,
        "फ़": 905,
        "10<|w|>": 906,
        "ज्यादा<|w|>": 907,
        "रात<|w|>": 908,
        "्रा": 909,
        "मण<|w|>": 910,
        "सार<|w|>": 911,
        "दिया।<|w|>": 912,
        "उसके<|w|>": 913,
        "घा": 914,
        "स्था<|w|>": 915,
        "दर्ज<|w|>": 916,
        "हत<|w|>": 917,
        "विश्": 918,
        "स्ट<|w|>": 919,
        "यां<|w|>": 920,
        "दार<|w|>": 921,
        "पूर्व<|w|>": 922,
        "इसमें<|w|>": 923,
        "बंद<|w|>": 924,
        "तैया": 925,
        "फो": 926,
        "ट्रे": 927,
        "कार्र": 928,
        "पिछ": 929,
        "मारी<|w|>": 930,
        "फिर<|w|>": 931,
        "दस्": 932,
        "आने<|w|>": 933,
        "सकते<|w|>": 934,
        "दे<|w|>": 935,
        "धी<|w|>": 936,
        "घट": 937,
        "ठा": 938,
        "ंकि<|w|>": 939,
        "ँ<|w|>": 940,
        "सुर": 941,
        "गं": 942,
        "बहुत<|w|>": 943,
        "आर": 944,
        "ख्या<|w|>": 945,
        "मू": 946,
        "इला": 947,
        "शो": 948,
        "देने<|w|>": 949,
        "सहित<|w|>": 950,
        "अभी<|w|>": 951,
        "जों<|w|>": 952,
        "ि<|w|>": 953,
        "करी": 954,
        "कार्रवाई<|w|>": 955,
        "संख्या<|w|>": 956,
        "ड़े<|w|>": 957,
        "जग": 958,
        "या,<|w|>": 959,
        "क्ति<|w|>": 960,
        "201": 961,
        "कल<|w|>": 962,
        "पंचा": 963,
        "फै": 964,
        "लक्ष": 965,
        "तथा<|w|>": 966,
        "वायर": 967,
        "क्रम<|w|>": 968,
        "विद्या": 969,
        "जिसमें<|w|>": 970,
        "गए।<|w|>": 971,
        "धार<|w|>": 972,
        "लं": 973,
        "धान<|w|>": 974,
        "जरू": 975,
        "निक<|w|>": 976,
        "स्कू": 977,
        "धि<|w|>": 978,
        "पूर्ण<|w|>": 979,
        "वल<|w|>": 980,
        "छो": 981,
        "वज": 982,
        "शिक्ष": 983,
        "की।<|w|>": 984,
        "दुका": 985,
        "रिपोर्ट<|w|>": 986,
        "रवि": 987,
        "उनकी<|w|>": 988,
        "चे": 989,
        "शर्": 990,
        "बह<|w|>": 991,
        "बाइ": 992,
        "ड़ी<|w|>": 993,
        "थाना<|w|>": 994,
        "यक<|w|>": 995,
        "नाव<|w|>": 996,
        "रित<|w|>": 997,
        "राज्य<|w|>": 998,
        "ौर<|w|>": 999
    },
    "merge_rules": [
        [
            "े",
            "<|w|>"
        ],
        [
            "ा",
            "<|w|>"
        ],
        [
            "ी",
            "<|w|>"
        ],
        [
            "र",
            "<|w|>"
        ],
        [
            "ं",
            "<|w|>"
        ],
        [
            "क",
            "े<|w|>"
        ],
        [
            "।",
            "<|w|>"
        ],
        [
            "म",
            "े"
        ],
        [
            "न",
            "<|w|>"
        ],
        [
            "्",
            "र"
        ],
        [
            "न",
            "े<|w|>"
        ],
        [
            "ह",
            "ै"
        ],
        [
            "मे",
            "ं<|w|>"
        ],
        [
            "ो",
            "<|w|>"
        ],
        [
            "र",
            "्"
        ],
        [
            "क",
            "ी<|w|>"
        ],
        [
            "ो",
            "ं<|w|>"
        ],
        [
            ",",
            "<|w|>"
        ],
        [
            "क",
            "<|w|>"
        ],
        [
            "त",
            "<|w|>"
        ],
        [
            "स",
            "े<|w|>"
        ],
        [
            "क",
            "ि"
        ],
        [
            "व",
            "ा"
        ],
        [
            "क",
            "ा"
        ],
        [
            "स",
            "्"
        ],
        [
            "ल",
            "<|w|>"
        ],
        [
            "य",
            "ा<|w|>"
        ],
        [
            "स",
            "<|w|>"
        ],
        [
            "क",
            "ो<|w|>"
        ],
        [
            "्",
            "य"
        ],
        [
            "म",
            "ा"
        ],
        [
            "क",
            "्"
        ],
        [
            "क",
            "ा<|w|>"
        ],
        [
            "ए",
            "<|w|>"
        ],
        [
            "र",
            "ा"
        ],
        [
            "प",
            "्र"
        ],
        [
            "है",
            "।<|w|>"
        ],
        [
            "ल",
            "ि"
        ],
        [
            "व",
            "ि"
        ],
        [
            "म",
            "<|w|>"
        ],
        [
            "स",
            "ा"
        ],
        [
            "ज",
            "ा"
        ],
        [
            "न",
            "ि"
        ],
        [
            "क",
            "र"
        ],
        [
            "न",
            "ा<|w|>"
        ],
        [
            "ब",
            "ा"
        ],
        [
            "ल",
            "ा"
        ],
        [
            "औ",
            "र<|w|>"
        ],
        [
            "य",
            "ा"
        ],
        [
            "क",
            "र<|w|>"
        ],
        [
            "र",
            "ह"
        ],
        [
            "ई",
            "<|w|>"
        ],
        [
            "प",
            "र<|w|>"
        ],
        [
            "व",
            "<|w|>"
        ],
        [
            "त",
            "ा"
        ],
        [
            "कि",
            "<|w|>"
        ],
        [
            "र",
            "ि"
        ],
        [
            "द",
            "<|w|>"
        ],
        [
            "त",
            "ा<|w|>"
        ],
        [
            "र",
            "ी<|w|>"
        ],
        [
            "ह",
            "<|w|>"
        ],
        [
            "द",
            "ि"
        ],
        [
            "त",
            "ि"
        ],
        [
            "ह",
            "ा"
        ],
        [
            "भ",
            "ी<|w|>"
        ],
        [
            "य",
            "<|w|>"
        ],
        [
            "प",
            "ा"
        ],
        [
            "स",
            "ं"
        ],
        [
            "ट",
            "<|w|>"
        ],
        [
            "द",
            "े"
        ],
        [
            "ग",
            "<|w|>"
        ],
        [
            "ह",
            "ो"
        ],
        [
            "क्",
            "ष"
        ],
        [
            "ल",
            "े<|w|>"
        ],
        [
            "त",
            "्"
        ],
        [
            "ज",
            "ि"
        ],
        [
            "न",
            "ा"
        ],
        [
            "म",
            "ि"
        ],
        [
            "ल",
            "े"
        ],
        [
            "ग",
            "ा"
        ],
        [
            "ह",
            "ु"
        ],
        [
            "ह",
            "ी"
        ],
        [
            "ण",
            "<|w|>"
        ],
        [
            "भ",
            "ा"
        ],
        [
            "लि",
            "ए<|w|>"
        ],
        [
            "है",
            "ं"
        ],
        [
            "र",
            "ो"
        ],
        [
            "च",
            "ा"
        ],
        [
            "स",
            "ि"
        ],
        [
            "श",
            "<|w|>"
        ],
        [
            "ज",
            "<|w|>"
        ],
        [
            "त",
            "े<|w|>"
        ],
        [
            "ही",
            "ं<|w|>"
        ],
        [
            "है",
            "<|w|>"
        ],
        [
            "ड",
            "़"
        ],
        [
            "े",
            "ं"
        ],
        [
            "ब",
            "<|w|>"
        ],
        [
            "प",
            "ु"
        ],
        [
            "थ",
            "ा"
        ],
        [
            "इ",
            "स"
        ],
        [
            "न",
            "ी<|w|>"
        ],
        [
            "ध",
            "ि"
        ],
        [
            "क",
            "ो"
        ],
        [
            "न",
            "्"
        ],
        [
            "द",
            "ा"
        ],
        [
            "द",
            "्"
        ],
        [
            "हैं",
            "।<|w|>"
        ],
        [
            "ह",
            "ी<|w|>"
        ],
        [
            "ल",
            "ा<|w|>"
        ],
        [
            "य",
            "ों<|w|>"
        ],
        [
            "न",
            "हीं<|w|>"
        ],
        [
            "ल",
            "ो"
        ],
        [
            "इ",
            "स<|w|>"
        ],
        [
            "ल",
            "ी<|w|>"
        ],
        [
            "्य",
            "<|w|>"
        ],
        [
            "र",
            "ू"
        ],
        [
            "ह",
            "ि"
        ],
        [
            "प",
            "<|w|>"
        ],
        [
            "ी",
            "।<|w|>"
        ],
        [
            "च",
            "<|w|>"
        ],
        [
            "श",
            "ा"
        ],
        [
            "ड",
            "<|w|>"
        ],
        [
            "र",
            "ा<|w|>"
        ],
        [
            "र",
            "ी"
        ],
        [
            "क",
            "ु"
        ],
        [
            "म",
            "ु"
        ],
        [
            "त",
            "ी<|w|>"
        ],
        [
            "ति",
            "<|w|>"
        ],
        [
            "ए",
            "क<|w|>"
        ],
        [
            "्य",
            "ा"
        ],
        [
            "0",
            "<|w|>"
        ],
        [
            "स",
            "ु"
        ],
        [
            "ध",
            "ा"
        ],
        [
            "कर",
            "ने<|w|>"
        ],
        [
            "या",
            "।<|w|>"
        ],
        [
            "कि",
            "या<|w|>"
        ],
        [
            "स",
            "ी<|w|>"
        ],
        [
            "प",
            "ू"
        ],
        [
            "ं",
            "ग"
        ],
        [
            "क",
            "्र"
        ],
        [
            "ह",
            "ो<|w|>"
        ],
        [
            "थ",
            "<|w|>"
        ],
        [
            "अ",
            "प"
        ],
        [
            "त",
            "्र"
        ],
        [
            "न",
            "ों<|w|>"
        ],
        [
            "श",
            "ि"
        ],
        [
            "ज",
            "ा<|w|>"
        ],
        [
            "स",
            "म"
        ],
        [
            "ल",
            "्"
        ],
        [
            "स",
            "ी"
        ],
        [
            "े",
            "।<|w|>"
        ],
        [
            "े",
            "ं<|w|>"
        ],
        [
            "वा",
            "र<|w|>"
        ],
        [
            "स्",
            "थ"
        ],
        [
            "त",
            "क<|w|>"
        ],
        [
            "द",
            "ी<|w|>"
        ],
        [
            "ट",
            "्र"
        ],
        [
            "य",
            "ह<|w|>"
        ],
        [
            "य",
            "ो"
        ],
        [
            "क",
            "े"
        ],
        [
            "स",
            "र"
        ],
        [
            "ि",
            "त<|w|>"
        ],
        [
            "न",
            "े"
        ],
        [
            "बा",
            "द<|w|>"
        ],
        [
            "अ",
            "धि"
        ],
        [
            ".",
            "<|w|>"
        ],
        [
            "अ",
            "न"
        ],
        [
            "ट",
            "ि"
        ],
        [
            "ी",
            "य<|w|>"
        ],
        [
            "ष",
            "्"
        ],
        [
            "ब",
            "ि"
        ],
        [
            "प",
            "ह"
        ],
        [
            "श",
            "्"
        ],
        [
            "म",
            "ं"
        ],
        [
            "स",
            "क"
        ],
        [
            "ं",
            "ग<|w|>"
        ],
        [
            "र",
            "ु"
        ],
        [
            "ग",
            "या<|w|>"
        ],
        [
            "रा",
            "ज"
        ],
        [
            "ओ",
            "ं<|w|>"
        ],
        [
            "ड",
            "ि"
        ],
        [
            "त्",
            "र<|w|>"
        ],
        [
            "का",
            "र्"
        ],
        [
            "सा",
            "थ<|w|>"
        ],
        [
            "का",
            "र<|w|>"
        ],
        [
            "र",
            "े"
        ],
        [
            "क",
            "ह"
        ],
        [
            "ग",
            "ों<|w|>"
        ],
        [
            "ग",
            "्र"
        ],
        [
            "व",
            "र्"
        ],
        [
            "ब",
            "ी"
        ],
        [
            "ब",
            "ता"
        ],
        [
            "का",
            "र"
        ],
        [
            "प",
            "रि"
        ],
        [
            "श",
            "ु"
        ],
        [
            "रह",
            "े<|w|>"
        ],
        [
            "ब",
            "ं"
        ],
        [
            "उ",
            "न्"
        ],
        [
            "त",
            "ो<|w|>"
        ],
        [
            "प",
            "्"
        ],
        [
            "दे",
            "श<|w|>"
        ],
        [
            "म",
            "ी"
        ],
        [
            "स",
            "े"
        ],
        [
            "लो",
            "गों<|w|>"
        ],
        [
            "र",
            "े<|w|>"
        ],
        [
            "उ",
            "न"
        ],
        [
            "व",
            "े"
        ],
        [
            "सि",
            "ं"
        ],
        [
            "प",
            "ी"
        ],
        [
            "ध",
            "<|w|>"
        ],
        [
            "रह",
            "ा<|w|>"
        ],
        [
            "ज",
            "ी"
        ],
        [
            "न",
            "ी"
        ],
        [
            "ट",
            "ी<|w|>"
        ],
        [
            "ख",
            "ा"
        ],
        [
            "य",
            "ु"
        ],
        [
            "ट",
            "ी"
        ],
        [
            "नि",
            "र्"
        ],
        [
            "जा",
            "ए"
        ],
        [
            "द",
            "ु"
        ],
        [
            "है",
            ",<|w|>"
        ],
        [
            "फ",
            "<|w|>"
        ],
        [
            "ह",
            "र<|w|>"
        ],
        [
            "म",
            "ौ"
        ],
        [
            "बता",
            "या<|w|>"
        ],
        [
            "का",
            "री<|w|>"
        ],
        [
            "प",
            "ि"
        ],
        [
            "5",
            "<|w|>"
        ],
        [
            "द",
            "ू"
        ],
        [
            "पु",
            "लि"
        ],
        [
            "च",
            "ु"
        ],
        [
            "श",
            "न<|w|>"
        ],
        [
            "व",
            "ा<|w|>"
        ],
        [
            "ट",
            "र<|w|>"
        ],
        [
            "उ",
            "प"
        ],
        [
            "कह",
            "ा<|w|>"
        ],
        [
            "गा",
            "।<|w|>"
        ],
        [
            "र",
            "ों<|w|>"
        ],
        [
            "रह",
            "ी<|w|>"
        ],
        [
            "ल",
            "ग"
        ],
        [
            "ू",
            "<|w|>"
        ],
        [
            "है",
            "ं<|w|>"
        ],
        [
            "ं",
            "च<|w|>"
        ],
        [
            "हु",
            "ए<|w|>"
        ],
        [
            "ढ",
            "़"
        ],
        [
            "ले",
            "कि"
        ],
        [
            "पुलि",
            "स<|w|>"
        ],
        [
            "इस",
            "के<|w|>"
        ],
        [
            "था",
            "।<|w|>"
        ],
        [
            "त",
            "ी"
        ],
        [
            "च",
            "्"
        ],
        [
            "ट",
            "ा"
        ],
        [
            "ै",
            "ं"
        ],
        [
            "ग",
            "ु"
        ],
        [
            "को",
            "रो"
        ],
        [
            "ट",
            "े"
        ],
        [
            "इ",
            "न<|w|>"
        ],
        [
            "व",
            "ी"
        ],
        [
            "अ",
            "ं"
        ],
        [
            "जि",
            "स"
        ],
        [
            "उ",
            "स"
        ],
        [
            "ड",
            "ा"
        ],
        [
            "लेकि",
            "न<|w|>"
        ],
        [
            "ग",
            "ई<|w|>"
        ],
        [
            "दि",
            "या<|w|>"
        ],
        [
            "हो",
            "ने<|w|>"
        ],
        [
            "ब",
            "्"
        ],
        [
            "ब",
            "े"
        ],
        [
            "वा",
            "ले<|w|>"
        ],
        [
            "हा",
            "ं<|w|>"
        ],
        [
            "द",
            "ा<|w|>"
        ],
        [
            "ए",
            "।<|w|>"
        ],
        [
            "क",
            "ों<|w|>"
        ],
        [
            "च",
            "ि"
        ],
        [
            "ष",
            "<|w|>"
        ],
        [
            "कोरो",
            "ना<|w|>"
        ],
        [
            "पू",
            "र्"
        ],
        [
            "क",
            "र्"
        ],
        [
            "ख",
            "<|w|>"
        ],
        [
            "स्",
            "था"
        ],
        [
            "प",
            "हु"
        ],
        [
            "प",
            "ो"
        ],
        [
            "म",
            "ो"
        ],
        [
            "र",
            ",<|w|>"
        ],
        [
            "ड",
            "ी"
        ],
        [
            "थ",
            "ा<|w|>"
        ],
        [
            "ज",
            "ो<|w|>"
        ],
        [
            "अप",
            "ने<|w|>"
        ],
        [
            "अन",
            "ु"
        ],
        [
            "ध",
            "्य"
        ],
        [
            "स",
            "ो"
        ],
        [
            "ग",
            "र<|w|>"
        ],
        [
            "अ",
            "ब<|w|>"
        ],
        [
            "रू",
            "प<|w|>"
        ],
        [
            "2",
            "0"
        ],
        [
            "क्ष",
            "े"
        ],
        [
            "व",
            "्य"
        ],
        [
            "ग",
            "ि"
        ],
        [
            "म",
            "ा<|w|>"
        ],
        [
            "आ",
            "<|w|>"
        ],
        [
            "पह",
            "ले<|w|>"
        ],
        [
            "फ",
            "ि"
        ],
        [
            "द",
            "र्"
        ],
        [
            "व",
            "े<|w|>"
        ],
        [
            "सिं",
            "ह<|w|>"
        ],
        [
            "ग",
            "या।<|w|>"
        ],
        [
            "द",
            "ो"
        ],
        [
            "ई",
            "।<|w|>"
        ],
        [
            "2",
            "<|w|>"
        ],
        [
            "ज",
            "ी<|w|>"
        ],
        [
            "स्",
            "त"
        ],
        [
            "म",
            "्"
        ],
        [
            "द्",
            "वा"
        ],
        [
            "स",
            "ू"
        ],
        [
            "इ",
            "ं"
        ],
        [
            "कु",
            "मा"
        ],
        [
            "ल",
            "गा"
        ],
        [
            "हो",
            "ं"
        ],
        [
            "र",
            "त<|w|>"
        ],
        [
            "ख",
            "ि"
        ],
        [
            "द्वा",
            "रा<|w|>"
        ],
        [
            "ए",
            "स"
        ],
        [
            "क्ष",
            "ा<|w|>"
        ],
        [
            "ले",
            "कर<|w|>"
        ],
        [
            "र्",
            "थ"
        ],
        [
            "प्र",
            "ा"
        ],
        [
            "द",
            "ौ"
        ],
        [
            "ब",
            "र<|w|>"
        ],
        [
            "द्",
            "र<|w|>"
        ],
        [
            "1",
            "<|w|>"
        ],
        [
            "स",
            "ा<|w|>"
        ],
        [
            "स",
            "भी<|w|>"
        ],
        [
            "प्र",
            "ति"
        ],
        [
            "गा",
            "ं"
        ],
        [
            "र",
            "ख"
        ],
        [
            "छ",
            "<|w|>"
        ],
        [
            "ल",
            "ों<|w|>"
        ],
        [
            "ं",
            "च"
        ],
        [
            "ब",
            "ु"
        ],
        [
            "ल",
            "ी"
        ],
        [
            "ज",
            "न<|w|>"
        ],
        [
            "प",
            "ी<|w|>"
        ],
        [
            "ब",
            "ना"
        ],
        [
            "हों",
            "ने<|w|>"
        ],
        [
            "अधि",
            "क<|w|>"
        ],
        [
            "दि",
            "न<|w|>"
        ],
        [
            "स्",
            "प"
        ],
        [
            "ं",
            ",<|w|>"
        ],
        [
            "ग",
            "ी।<|w|>"
        ],
        [
            "मा",
            "म"
        ],
        [
            "4",
            "<|w|>"
        ],
        [
            "ज",
            "़"
        ],
        [
            "थ",
            "े।<|w|>"
        ],
        [
            "म",
            "ी<|w|>"
        ],
        [
            "पु",
            "र<|w|>"
        ],
        [
            "रह",
            "<|w|>"
        ],
        [
            "सर",
            "कार<|w|>"
        ],
        [
            "ग",
            "ए<|w|>"
        ],
        [
            "दे",
            "श"
        ],
        [
            "उन्",
            "होंने<|w|>"
        ],
        [
            "-",
            "<|w|>"
        ],
        [
            "ट",
            "्"
        ],
        [
            "क्ष",
            "<|w|>"
        ],
        [
            "प",
            "ं"
        ],
        [
            "क",
            "म<|w|>"
        ],
        [
            "र्",
            "ट<|w|>"
        ],
        [
            "क्",
            "त<|w|>"
        ],
        [
            "फ",
            "ा"
        ],
        [
            "य",
            "े<|w|>"
        ],
        [
            "क",
            "रा"
        ],
        [
            "कु",
            "छ<|w|>"
        ],
        [
            "मा",
            "न<|w|>"
        ],
        [
            "ग्र",
            "ा"
        ],
        [
            "व",
            "ै"
        ],
        [
            "9",
            "<|w|>"
        ],
        [
            "भ",
            "ि"
        ],
        [
            "ज",
            "ै"
        ],
        [
            "रू",
            "<|w|>"
        ],
        [
            "ह",
            "ें<|w|>"
        ],
        [
            "क",
            "ं"
        ],
        [
            "3",
            "<|w|>"
        ],
        [
            "मि",
            "ल<|w|>"
        ],
        [
            "रा",
            "न<|w|>"
        ],
        [
            "स्",
            "वा"
        ],
        [
            "कर",
            "ते<|w|>"
        ],
        [
            "श",
            "्र"
        ],
        [
            "कार्",
            "य"
        ],
        [
            "म",
            "हा"
        ],
        [
            ")",
            "<|w|>"
        ],
        [
            "ब",
            "ै"
        ],
        [
            "त्र",
            "ी<|w|>"
        ],
        [
            "ज",
            "ू"
        ],
        [
            "क्षे",
            "त्र<|w|>"
        ],
        [
            "मा",
            "न"
        ],
        [
            "पा",
            "स<|w|>"
        ],
        [
            "ज",
            "ु"
        ],
        [
            "प",
            "े"
        ],
        [
            "8",
            "<|w|>"
        ],
        [
            "ज",
            "्"
        ],
        [
            "वि",
            "का"
        ],
        [
            "थ",
            "ी।<|w|>"
        ],
        [
            "रु",
            "प"
        ],
        [
            "जा",
            "र<|w|>"
        ],
        [
            "का",
            "म<|w|>"
        ],
        [
            "म",
            "ै"
        ],
        [
            "उ",
            "त्"
        ],
        [
            "ए",
            "व"
        ],
        [
            "द",
            "ी"
        ],
        [
            "व",
            "ह<|w|>"
        ],
        [
            "6",
            "<|w|>"
        ],
        [
            "हैं",
            ",<|w|>"
        ],
        [
            "द",
            "ो<|w|>"
        ],
        [
            "कार",
            "ण<|w|>"
        ],
        [
            "भा",
            "ग<|w|>"
        ],
        [
            "सा",
            "ल<|w|>"
        ],
        [
            "क",
            "ई<|w|>"
        ],
        [
            "क",
            "ृ"
        ],
        [
            "लो",
            "ग<|w|>"
        ],
        [
            "एव",
            "ं<|w|>"
        ],
        [
            "ब",
            "ढ़"
        ],
        [
            "ड़",
            "<|w|>"
        ],
        [
            "स",
            "र<|w|>"
        ],
        [
            "त",
            "र"
        ],
        [
            "त",
            "रह<|w|>"
        ],
        [
            "ल",
            "य<|w|>"
        ],
        [
            "जा",
            "न"
        ],
        [
            "य",
            "ू"
        ],
        [
            "को",
            "ई<|w|>"
        ],
        [
            "ं",
            "ड<|w|>"
        ],
        [
            "शु",
            "रू<|w|>"
        ],
        [
            "कुमा",
            "र<|w|>"
        ],
        [
            "च",
            "ी"
        ],
        [
            ":",
            "<|w|>"
        ],
        [
            "घ",
            "र<|w|>"
        ],
        [
            "न",
            ",<|w|>"
        ],
        [
            "दौ",
            "रान<|w|>"
        ],
        [
            "म",
            "री"
        ],
        [
            "स",
            "ब"
        ],
        [
            "बा",
            "र<|w|>"
        ],
        [
            "7",
            "<|w|>"
        ],
        [
            "स्",
            "ट"
        ],
        [
            "स",
            "मा"
        ],
        [
            "सं",
            "क्र"
        ],
        [
            "ज",
            "े<|w|>"
        ],
        [
            "हु",
            "ई<|w|>"
        ],
        [
            "ल",
            "ने<|w|>"
        ],
        [
            "कि",
            "सा"
        ],
        [
            "सम",
            "य<|w|>"
        ],
        [
            "गां",
            "व<|w|>"
        ],
        [
            "त",
            "े"
        ],
        [
            "चा",
            "र<|w|>"
        ],
        [
            "क",
            "ॉ"
        ],
        [
            "म",
            "हि"
        ],
        [
            "ब",
            "ो"
        ],
        [
            "फ",
            "्"
        ],
        [
            "ड",
            "ॉ"
        ],
        [
            "ज",
            "ो"
        ],
        [
            "म",
            "ह"
        ],
        [
            "य",
            "त<|w|>"
        ],
        [
            "क",
            "ी"
        ],
        [
            "ग",
            "ई।<|w|>"
        ],
        [
            "दे",
            "ख"
        ],
        [
            "कर",
            "ना<|w|>"
        ],
        [
            "त",
            "ों<|w|>"
        ],
        [
            "ज",
            "न"
        ],
        [
            "मु",
            "ख"
        ],
        [
            "रि",
            "यों<|w|>"
        ],
        [
            "बा",
            "त<|w|>"
        ],
        [
            "कि",
            "सी<|w|>"
        ],
        [
            "विका",
            "स<|w|>"
        ],
        [
            "श",
            "े"
        ],
        [
            "द",
            "्र"
        ],
        [
            "प्र",
            "भा"
        ],
        [
            "ें",
            "द्र<|w|>"
        ],
        [
            "्य",
            "ो"
        ],
        [
            "जा",
            "ने<|w|>"
        ],
        [
            "च्",
            "च"
        ],
        [
            "उ",
            "न<|w|>"
        ],
        [
            "हि",
            "त<|w|>"
        ],
        [
            "त",
            "र<|w|>"
        ],
        [
            "छ",
            "ा"
        ],
        [
            "उन",
            "के<|w|>"
        ],
        [
            "जा",
            "ंच<|w|>"
        ],
        [
            "अन",
            "्य<|w|>"
        ],
        [
            "सा",
            "म"
        ],
        [
            "स्",
            "व"
        ],
        [
            "च",
            "ौ"
        ],
        [
            "पहु",
            "ंच"
        ],
        [
            "न",
            "गर<|w|>"
        ],
        [
            "ता",
            "र<|w|>"
        ],
        [
            "ें",
            "ग"
        ],
        [
            "ख",
            "ु"
        ],
        [
            "उन्",
            "हें<|w|>"
        ],
        [
            "नि",
            "य"
        ],
        [
            "कि",
            "या।<|w|>"
        ],
        [
            "0",
            "0<|w|>"
        ],
        [
            "मं",
            "त्री<|w|>"
        ],
        [
            "ख",
            "्"
        ],
        [
            "ग",
            "ो"
        ],
        [
            "ल",
            "न<|w|>"
        ],
        [
            "जि",
            "ला<|w|>"
        ],
        [
            "प",
            "ै"
        ],
        [
            "स",
            "न<|w|>"
        ],
        [
            "अप",
            "नी<|w|>"
        ],
        [
            "वा",
            "ई<|w|>"
        ],
        [
            "ल",
            "ॉ"
        ],
        [
            "स",
            "र्"
        ],
        [
            "व",
            "ी<|w|>"
        ],
        [
            "ध्य",
            "क्ष<|w|>"
        ],
        [
            "इ",
            "न"
        ],
        [
            "ज",
            "ब<|w|>"
        ],
        [
            "ज्",
            "ञ"
        ],
        [
            "ल",
            ",<|w|>"
        ],
        [
            "वि",
            "भाग<|w|>"
        ],
        [
            "ग",
            "ी<|w|>"
        ],
        [
            "स्वा",
            "स्थ"
        ],
        [
            "भा",
            "रत<|w|>"
        ],
        [
            "कि",
            "ए<|w|>"
        ],
        [
            "जि",
            "ले<|w|>"
        ],
        [
            "चा",
            "हि"
        ],
        [
            "मा",
            "र्"
        ],
        [
            "ज",
            "े"
        ],
        [
            "का",
            "े<|w|>"
        ],
        [
            "आ",
            "रो"
        ],
        [
            "यो",
            "ग<|w|>"
        ],
        [
            "ट",
            "े<|w|>"
        ],
        [
            "प",
            "र्"
        ],
        [
            "प",
            "ा<|w|>"
        ],
        [
            "व्य",
            "व"
        ],
        [
            "रुप",
            "ए<|w|>"
        ],
        [
            "क",
            "ू"
        ],
        [
            "ं",
            "ड"
        ],
        [
            "सब",
            "से<|w|>"
        ],
        [
            "त",
            "ु"
        ],
        [
            "रा",
            "ष्"
        ],
        [
            "वा",
            "ली<|w|>"
        ],
        [
            "ज",
            "ब"
        ],
        [
            "र",
            "ण<|w|>"
        ],
        [
            "ि",
            "क<|w|>"
        ],
        [
            "य",
            "र"
        ],
        [
            "ता",
            "ल<|w|>"
        ],
        [
            "भ",
            "ू"
        ],
        [
            "स्थ",
            "ि"
        ],
        [
            "श",
            "ी"
        ],
        [
            "टि",
            "व<|w|>"
        ],
        [
            "ड़",
            "ी<|w|>"
        ],
        [
            "्य",
            "ू"
        ],
        [
            "माम",
            "ले<|w|>"
        ],
        [
            "ग",
            "ा<|w|>"
        ],
        [
            "अ",
            "स्प"
        ],
        [
            "भ",
            "ी"
        ],
        [
            "ता",
            "ओं<|w|>"
        ],
        [
            "ड़",
            "<|w|>"
        ],
        [
            "ख",
            "े"
        ],
        [
            "त",
            "ै"
        ],
        [
            "र्",
            "ड<|w|>"
        ],
        [
            "र",
            "ं"
        ],
        [
            "य",
            "हां<|w|>"
        ],
        [
            "अ",
            "व"
        ],
        [
            "लि",
            "या<|w|>"
        ],
        [
            "वि",
            "धा"
        ],
        [
            "दा",
            "न<|w|>"
        ],
        [
            "ह",
            "म<|w|>"
        ],
        [
            "्या",
            "दा<|w|>"
        ],
        [
            "सक",
            "ता<|w|>"
        ],
        [
            "व",
            "न<|w|>"
        ],
        [
            "ब",
            "च्च"
        ],
        [
            "जा",
            "री<|w|>"
        ],
        [
            "आ",
            "ई"
        ],
        [
            "क",
            "ै"
        ],
        [
            "नि",
            "वा"
        ],
        [
            "स्वास्थ",
            "्य<|w|>"
        ],
        [
            "पा",
            "र्"
        ],
        [
            "हु",
            "आ<|w|>"
        ],
        [
            "बै",
            "ठ"
        ],
        [
            "द",
            "र<|w|>"
        ],
        [
            "ए",
            "म"
        ],
        [
            "ब",
            "हु"
        ],
        [
            "जान",
            "कारी<|w|>"
        ],
        [
            "श",
            "हर<|w|>"
        ],
        [
            "है",
            ".<|w|>"
        ],
        [
            "ऐ",
            "से<|w|>"
        ],
        [
            "ण",
            "ा"
        ],
        [
            "यो",
            "ज"
        ],
        [
            "ट",
            "ा<|w|>"
        ],
        [
            "व",
            "र<|w|>"
        ],
        [
            "ड़",
            "ा<|w|>"
        ],
        [
            "ब",
            "जे<|w|>"
        ],
        [
            "रा",
            "म"
        ],
        [
            "प्",
            "त<|w|>"
        ],
        [
            "खि",
            "ला"
        ],
        [
            "न",
            "ो"
        ],
        [
            "ग",
            "त<|w|>"
        ],
        [
            "ए",
            "म<|w|>"
        ],
        [
            "सं",
            "बं"
        ],
        [
            "आ",
            "ई<|w|>"
        ],
        [
            "्र",
            "े"
        ],
        [
            "य",
            "र<|w|>"
        ],
        [
            "ध",
            "न<|w|>"
        ],
        [
            "बी",
            "च<|w|>"
        ],
        [
            "र",
            "त"
        ],
        [
            "दि",
            "<|w|>"
        ],
        [
            "शा",
            "मिल<|w|>"
        ],
        [
            "देश",
            "ों<|w|>"
        ],
        [
            "मि",
            "त<|w|>"
        ],
        [
            "भ",
            "े"
        ],
        [
            "अस्प",
            "ताल<|w|>"
        ],
        [
            "शा",
            "सन<|w|>"
        ],
        [
            "ी",
            ",<|w|>"
        ],
        [
            "भ",
            "<|w|>"
        ],
        [
            "क्र",
            "ि"
        ],
        [
            "वि",
            "द"
        ],
        [
            "स्थ",
            "ित<|w|>"
        ],
        [
            "पा",
            "नी<|w|>"
        ],
        [
            "पो",
            "र्ट<|w|>"
        ],
        [
            "ड",
            "ी<|w|>"
        ],
        [
            "ह",
            "न<|w|>"
        ],
        [
            "ब",
            "द"
        ],
        [
            "नि",
            "या<|w|>"
        ],
        [
            "2",
            "0<|w|>"
        ],
        [
            "ज्ञ",
            "ा"
        ],
        [
            "इस",
            "से<|w|>"
        ],
        [
            "य",
            "न<|w|>"
        ],
        [
            "अ",
            "भि"
        ],
        [
            "कं",
            "प"
        ],
        [
            "प",
            "ॉ"
        ],
        [
            "ं",
            "बर<|w|>"
        ],
        [
            "दो",
            "नों<|w|>"
        ],
        [
            "जा",
            "ता<|w|>"
        ],
        [
            "ला",
            "ख<|w|>"
        ],
        [
            "सू",
            "च"
        ],
        [
            "क्",
            "टर<|w|>"
        ],
        [
            "जाए",
            "गा।<|w|>"
        ],
        [
            "ि",
            "यों<|w|>"
        ],
        [
            "स",
            "ह"
        ],
        [
            "व",
            "हीं<|w|>"
        ],
        [
            "व",
            "्या"
        ],
        [
            "ड",
            "े"
        ],
        [
            "ती",
            "न<|w|>"
        ],
        [
            "ं",
            "।<|w|>"
        ],
        [
            "ह",
            "जार<|w|>"
        ],
        [
            "टी",
            "म<|w|>"
        ],
        [
            "ओ",
            "र<|w|>"
        ],
        [
            "ं",
            "ट<|w|>"
        ],
        [
            "ओ",
            "<|w|>"
        ],
        [
            "निर्",
            "मा"
        ],
        [
            "द",
            "न<|w|>"
        ],
        [
            "फ",
            "़"
        ],
        [
            "1",
            "0<|w|>"
        ],
        [
            "ज",
            "्यादा<|w|>"
        ],
        [
            "रा",
            "त<|w|>"
        ],
        [
            "्र",
            "ा"
        ],
        [
            "म",
            "ण<|w|>"
        ],
        [
            "सा",
            "र<|w|>"
        ],
        [
            "दि",
            "या।<|w|>"
        ],
        [
            "उस",
            "के<|w|>"
        ],
        [
            "घ",
            "ा"
        ],
        [
            "स्थ",
            "ा<|w|>"
        ],
        [
            "दर्",
            "ज<|w|>"
        ],
        [
            "ह",
            "त<|w|>"
        ],
        [
            "वि",
            "श्"
        ],
        [
            "स्",
            "ट<|w|>"
        ],
        [
            "या",
            "ं<|w|>"
        ],
        [
            "दा",
            "र<|w|>"
        ],
        [
            "पूर्",
            "व<|w|>"
        ],
        [
            "इस",
            "में<|w|>"
        ],
        [
            "बं",
            "द<|w|>"
        ],
        [
            "तै",
            "या"
        ],
        [
            "फ",
            "ो"
        ],
        [
            "ट्र",
            "े"
        ],
        [
            "कार",
            "्र"
        ],
        [
            "पि",
            "छ"
        ],
        [
            "मा",
            "री<|w|>"
        ],
        [
            "फि",
            "र<|w|>"
        ],
        [
            "द",
            "स्"
        ],
        [
            "आ",
            "ने<|w|>"
        ],
        [
            "सक",
            "ते<|w|>"
        ],
        [
            "द",
            "े<|w|>"
        ],
        [
            "ध",
            "ी<|w|>"
        ],
        [
            "घ",
            "ट"
        ],
        [
            "ठ",
            "ा"
        ],
        [
            "ं",
            "कि<|w|>"
        ],
        [
            "ँ",
            "<|w|>"
        ],
        [
            "सु",
            "र"
        ],
        [
            "ग",
            "ं"
        ],
        [
            "बहु",
            "त<|w|>"
        ],
        [
            "आ",
            "र"
        ],
        [
            "ख्",
            "या<|w|>"
        ],
        [
            "म",
            "ू"
        ],
        [
            "इ",
            "ला"
        ],
        [
            "श",
            "ो"
        ],
        [
            "दे",
            "ने<|w|>"
        ],
        [
            "स",
            "हित<|w|>"
        ],
        [
            "अ",
            "भी<|w|>"
        ],
        [
            "ज",
            "ों<|w|>"
        ],
        [
            "ि",
            "<|w|>"
        ],
        [
            "कर",
            "ी"
        ],
        [
            "कार्र",
            "वाई<|w|>"
        ],
        [
            "सं",
            "ख्या<|w|>"
        ],
        [
            "ड़",
            "े<|w|>"
        ],
        [
            "ज",
            "ग"
        ],
        [
            "या",
            ",<|w|>"
        ],
        [
            "क्",
            "ति<|w|>"
        ],
        [
            "20",
            "1"
        ],
        [
            "क",
            "ल<|w|>"
        ],
        [
            "पं",
            "चा"
        ],
        [
            "फ",
            "ै"
        ],
        [
            "ल",
            "क्ष"
        ],
        [
            "त",
            "था<|w|>"
        ],
        [
            "वा",
            "यर"
        ],
        [
            "क्र",
            "म<|w|>"
        ],
        [
            "विद",
            "्या"
        ],
        [
            "जिस",
            "में<|w|>"
        ],
        [
            "ग",
            "ए।<|w|>"
        ],
        [
            "धा",
            "र<|w|>"
        ],
        [
            "ल",
            "ं"
        ],
        [
            "धा",
            "न<|w|>"
        ],
        [
            "ज",
            "रू"
        ],
        [
            "नि",
            "क<|w|>"
        ],
        [
            "स्",
            "कू"
        ],
        [
            "धि",
            "<|w|>"
        ],
        [
            "पूर्",
            "ण<|w|>"
        ],
        [
            "व",
            "ल<|w|>"
        ],
        [
            "छ",
            "ो"
        ],
        [
            "व",
            "ज"
        ],
        [
            "शि",
            "क्ष"
        ],
        [
            "क",
            "ी।<|w|>"
        ],
        [
            "दु",
            "का"
        ],
        [
            "रि",
            "पोर्ट<|w|>"
        ],
        [
            "र",
            "वि"
        ],
        [
            "उन",
            "की<|w|>"
        ],
        [
            "च",
            "े"
        ],
        [
            "श",
            "र्"
        ],
        [
            "ब",
            "ह<|w|>"
        ],
        [
            "बा",
            "इ"
        ],
        [
            "ड़",
            "ी<|w|>"
        ],
        [
            "था",
            "ना<|w|>"
        ],
        [
            "य",
            "क<|w|>"
        ],
        [
            "ना",
            "व<|w|>"
        ],
        [
            "रि",
            "त<|w|>"
        ],
        [
            "राज",
            "्य<|w|>"
        ],
        [
            "ौ",
            "र<|w|>"
        ]
    ]
}