{
    "vocab_size": 1000,
    "special_tokens": [
        "<|PAD|>",
        "<|UNK|>",
        "<|SOS|>",
        "<|EOS|>"
    ],
    "eow_token": "<|w|>",
    "token_to_id": {
        "<|PAD|>": 0,
        "<|UNK|>": 1,
        "<|SOS|>": 2,
        "<|EOS|>": 3,
        "<|w|>": 4,
        "!": 5,
        "\"": 6,
        "#": 7,
        "$": 8,
        "%": 9,
        "&": 10,
        "'": 11,
        "(": 12,
        ")": 13,
        "*": 14,
        "+": 15,
        ",": 16,
        "-": 17,
        ".": 18,
        "/": 19,
        "0": 20,
        "1": 21,
        "2": 22,
        "3": 23,
        "4": 24,
        "5": 25,
        "6": 26,
        "7": 27,
        "8": 28,
        "9": 29,
        ":": 30,
        ";": 31,
        "<": 32,
        "=": 33,
        ">": 34,
        "?": 35,
        "@": 36,
        "A": 37,
        "B": 38,
        "C": 39,
        "D": 40,
        "E": 41,
        "F": 42,
        "G": 43,
        "H": 44,
        "I": 45,
        "J": 46,
        "K": 47,
        "L": 48,
        "M": 49,
        "N": 50,
        "O": 51,
        "P": 52,
        "Q": 53,
        "R": 54,
        "S": 55,
        "T": 56,
        "U": 57,
        "V": 58,
        "W": 59,
        "X": 60,
        "Y": 61,
        "Z": 62,
        "[": 63,
        "\\": 64,
        "]": 65,
        "^": 66,
        "_": 67,
        "`": 68,
        "a": 69,
        "b": 70,
        "c": 71,
        "d": 72,
        "e": 73,
        "f": 74,
        "g": 75,
        "h": 76,
        "i": 77,
        "j": 78,
        "k": 79,
        "l": 80,
        "m": 81,
        "n": 82,
        "o": 83,
        "p": 84,
        "q": 85,
        "r": 86,
        "s": 87,
        "t": 88,
        "u": 89,
        "v": 90,
        "w": 91,
        "x": 92,
        "y": 93,
        "z": 94,
        "{": 95,
        "|": 96,
        "}": 97,
        "~": 98,
        "£": 99,
        "¥": 100,
        "¨": 101,
        "°": 102,
        "·": 103,
        "º": 104,
        "Á": 105,
        "Ã": 106,
        "í": 107,
        "ऀ": 108,
        "ँ": 109,
        "ं": 110,
        "ः": 111,
        "ऄ": 112,
        "अ": 113,
        "आ": 114,
        "इ": 115,
        "ई": 116,
        "उ": 117,
        "ऊ": 118,
        "ऋ": 119,
        "ऌ": 120,
        "ऍ": 121,
        "ऎ": 122,
        "ए": 123,
        "ऐ": 124,
        "ऑ": 125,
        "ऒ": 126,
        "ओ": 127,
        "औ": 128,
        "क": 129,
        "ख": 130,
        "ग": 131,
        "घ": 132,
        "ङ": 133,
        "च": 134,
        "छ": 135,
        "ज": 136,
        "झ": 137,
        "ञ": 138,
        "ट": 139,
        "ठ": 140,
        "ड": 141,
        "ढ": 142,
        "ण": 143,
        "त": 144,
        "थ": 145,
        "द": 146,
        "ध": 147,
        "न": 148,
        "ऩ": 149,
        "प": 150,
        "फ": 151,
        "ब": 152,
        "भ": 153,
        "म": 154,
        "य": 155,
        "र": 156,
        "ऱ": 157,
        "ल": 158,
        "ळ": 159,
        "ऴ": 160,
        "व": 161,
        "श": 162,
        "ष": 163,
        "स": 164,
        "ह": 165,
        "ऺ": 166,
        "ऻ": 167,
        "़": 168,
        "ऽ": 169,
        "ा": 170,
        "ि": 171,
        "ी": 172,
        "ु": 173,
        "ू": 174,
        "ृ": 175,
        "ॄ": 176,
        "ॅ": 177,
        "ॆ": 178,
        "े": 179,
        "ै": 180,
        "ॉ": 181,
        "ॊ": 182,
        "ो": 183,
        "ौ": 184,
        "्": 185,
        "ॎ": 186,
        "ॏ": 187,
        "ॐ": 188,
        "॑": 189,
        "॒": 190,
        "॓": 191,
        "॔": 192,
        "ॕ": 193,
        "ॖ": 194,
        "ॗ": 195,
        "क़": 196,
        "ख़": 197,
        "ग़": 198,
        "ज़": 199,
        "ड़": 200,
        "ढ़": 201,
        "फ़": 202,
        "य़": 203,
        "ॠ": 204,
        "ॡ": 205,
        "ॢ": 206,
        "ॣ": 207,
        "।": 208,
        "॥": 209,
        "०": 210,
        "१": 211,
        "२": 212,
        "३": 213,
        "४": 214,
        "५": 215,
        "६": 216,
        "७": 217,
        "८": 218,
        "९": 219,
        "॰": 220,
        "ॱ": 221,
        "ॲ": 222,
        "ॳ": 223,
        "ॴ": 224,
        "ॵ": 225,
        "ॶ": 226,
        "ॷ": 227,
        "ॸ": 228,
        "ॹ": 229,
        "ॺ": 230,
        "ॻ": 231,
        "ॼ": 232,
        "ॽ": 233,
        "ॾ": 234,
        "ॿ": 235,
        "​": 236,
        "‌": 237,
        "‍": 238,
        "–": 239,
        "—": 240,
        "‘": 241,
        "’": 242,
        "“": 243,
        "”": 244,
        "•": 245,
        "€": 246,
        "₹": 247,
        "●": 248,
        "￼": 249,
        "�": 250,
        "💓": 251,
        "🖤": 252,
        "😂": 253,
        "😻": 254,
        "े<|w|>": 255,
        "ा<|w|>": 256,
        "ी<|w|>": 257,
        "र<|w|>": 258,
        "ं<|w|>": 259,
        "के<|w|>": 260,
        "।<|w|>": 261,
        "मे": 262,
        "न<|w|>": 263,
        "्र": 264,
        "ने<|w|>": 265,
        "है": 266,
        "में<|w|>": 267,
        "ो<|w|>": 268,
        "र्": 269,
        "की<|w|>": 270,
        "ों<|w|>": 271,
        ",<|w|>": 272,
        "क<|w|>": 273,
        "त<|w|>": 274,
        "से<|w|>": 275,
        "कि": 276,
        "वा": 277,
        "का": 278,
        "स्": 279,
        "ल<|w|>": 280,
        "या<|w|>": 281,
        "स<|w|>": 282,
        "को<|w|>": 283,
        "्य": 284,
        "मा": 285,
        "क्": 286,
        "का<|w|>": 287,
        "ए<|w|>": 288,
        "रा": 289,
        "प्र": 290,
        "है।<|w|>": 291,
        "लि": 292,
        "वि": 293,
        "म<|w|>": 294,
        "सा": 295,
        "जा": 296,
        "नि": 297,
        "कर": 298,
        "ना<|w|>": 299,
        "बा": 300,
        "ला": 301,
        "और<|w|>": 302,
        "या": 303,
        "कर<|w|>": 304,
        "रह": 305,
        "ई<|w|>": 306,
        "पर<|w|>": 307,
        "व<|w|>": 308,
        "ता": 309,
        "कि<|w|>": 310,
        "रि": 311,
        "द<|w|>": 312,
        "ता<|w|>": 313,
        "री<|w|>": 314,
        "ह<|w|>": 315,
        "दि": 316,
        "ति": 317,
        "हा": 318,
        "भी<|w|>": 319,
        "य<|w|>": 320,
        "पा": 321,
        "सं": 322,
        "ट<|w|>": 323,
        "दे": 324,
        "ग<|w|>": 325,
        "हो": 326,
        "क्ष": 327,
        "ले<|w|>": 328,
        "त्": 329,
        "जि": 330,
        "ना": 331,
        "मि": 332,
        "ले": 333,
        "गा": 334,
        "हु": 335,
        "ही": 336,
        "ण<|w|>": 337,
        "भा": 338,
        "लिए<|w|>": 339,
        "हैं": 340,
        "रो": 341,
        "चा": 342,
        "सि": 343,
        "श<|w|>": 344,
        "ज<|w|>": 345,
        "ते<|w|>": 346,
        "हीं<|w|>": 347,
        "है<|w|>": 348,
        "ड़": 349,
        "ें": 350,
        "ब<|w|>": 351,
        "पु": 352,
        "था": 353,
        "इस": 354,
        "नी<|w|>": 355,
        "धि": 356,
        "को": 357,
        "न्": 358,
        "दा": 359,
        "द्": 360,
        "हैं।<|w|>": 361,
        "ही<|w|>": 362,
        "ला<|w|>": 363,
        "यों<|w|>": 364,
        "नहीं<|w|>": 365,
        "लो": 366,
        "इस<|w|>": 367,
        "ली<|w|>": 368,
        "्य<|w|>": 369,
        "रू": 370,
        "हि": 371,
        "प<|w|>": 372,
        "ी।<|w|>": 373,
        "च<|w|>": 374,
        "शा": 375,
        "ड<|w|>": 376,
        "रा<|w|>": 377,
        "री": 378,
        "कु": 379,
        "मु": 380,
        "ती<|w|>": 381,
        "ति<|w|>": 382,
        "एक<|w|>": 383,
        "्या": 384,
        "0<|w|>": 385,
        "सु": 386,
        "धा": 387,
        "करने<|w|>": 388,
        "या।<|w|>": 389,
        "किया<|w|>": 390,
        "सी<|w|>": 391,
        "पू": 392,
        "ंग": 393,
        "क्र": 394,
        "हो<|w|>": 395,
        "थ<|w|>": 396,
        "अप": 397,
        "त्र": 398,
        "नों<|w|>": 399,
        "शि": 400,
        "जा<|w|>": 401,
        "सम": 402,
        "ल्": 403,
        "सी": 404,
        "े।<|w|>": 405,
        "ें<|w|>": 406,
        "वार<|w|>": 407,
        "स्थ": 408,
        "तक<|w|>": 409,
        "दी<|w|>": 410,
        "ट्र": 411,
        "यह<|w|>": 412,
        "यो": 413,
        "के": 414,
        "सर": 415,
        "ित<|w|>": 416,
        "ने": 417,
        "बाद<|w|>": 418,
        "अधि": 419,
        ".<|w|>": 420,
        "अन": 421,
        "टि": 422,
        "ीय<|w|>": 423,
        "ष्": 424,
        "बि": 425,
        "पह": 426,
        "श्": 427,
        "मं": 428,
        "सक": 429,
        "ंग<|w|>": 430,
        "रु": 431,
        "गया<|w|>": 432,
        "राज": 433,
        "ओं<|w|>": 434,
        "डि": 435,
        "त्र<|w|>": 436,
        "कार्": 437,
        "साथ<|w|>": 438,
        "कार<|w|>": 439,
        "रे": 440,
        "कह": 441,
        "गों<|w|>": 442,
        "ग्र": 443,
        "वर्": 444,
        "बी": 445,
        "बता": 446,
        "कार": 447,
        "परि": 448,
        "शु": 449,
        "रहे<|w|>": 450,
        "बं": 451,
        "उन्": 452,
        "तो<|w|>": 453,
        "प्": 454,
        "देश<|w|>": 455,
        "मी": 456,
        "से": 457,
        "लोगों<|w|>": 458,
        "रे<|w|>": 459,
        "उन": 460,
        "वे": 461,
        "सिं": 462,
        "पी": 463,
        "ध<|w|>": 464,
        "रहा<|w|>": 465,
        "जी": 466,
        "नी": 467,
        "टी<|w|>": 468,
        "खा": 469,
        "यु": 470,
        "टी": 471,
        "निर्": 472,
        "जाए": 473,
        "दु": 474,
        "है,<|w|>": 475,
        "फ<|w|>": 476,
        "हर<|w|>": 477,
        "मौ": 478,
        "बताया<|w|>": 479,
        "कारी<|w|>": 480,
        "पि": 481,
        "5<|w|>": 482,
        "दू": 483,
        "पुलि": 484,
        "चु": 485,
        "शन<|w|>": 486,
        "वा<|w|>": 487,
        "टर<|w|>": 488,
        "उप": 489,
        "कहा<|w|>": 490,
        "गा।<|w|>": 491,
        "रों<|w|>": 492,
        "रही<|w|>": 493,
        "लग": 494,
        "ू<|w|>": 495,
        "हैं<|w|>": 496,
        "ंच<|w|>": 497,
        "हुए<|w|>": 498,
        "ढ़": 499,
        "लेकि": 500,
        "पुलिस<|w|>": 501,
        "इसके<|w|>": 502,
        "था।<|w|>": 503,
        "ती": 504,
        "च्": 505,
        "टा": 506,
        "ैं": 507,
        "गु": 508,
        "कोरो": 509,
        "टे": 510,
        "इन<|w|>": 511,
        "वी": 512,
        "अं": 513,
        "जिस": 514,
        "उस": 515,
        "डा": 516,
        "लेकिन<|w|>": 517,
        "गई<|w|>": 518,
        "दिया<|w|>": 519,
        "होने<|w|>": 520,
        "ब्": 521,
        "बे": 522,
        "वाले<|w|>": 523,
        "हां<|w|>": 524,
        "दा<|w|>": 525,
        "ए।<|w|>": 526,
        "कों<|w|>": 527,
        "चि": 528,
        "ष<|w|>": 529,
        "कोरोना<|w|>": 530,
        "पूर्": 531,
        "कर्": 532,
        "ख<|w|>": 533,
        "स्था": 534,
        "पहु": 535,
        "पो": 536,
        "मो": 537,
        "र,<|w|>": 538,
        "डी": 539,
        "था<|w|>": 540,
        "जो<|w|>": 541,
        "अपने<|w|>": 542,
        "अनु": 543,
        "ध्य": 544,
        "सो": 545,
        "गर<|w|>": 546,
        "अब<|w|>": 547,
        "रूप<|w|>": 548,
        "20": 549,
        "क्षे": 550,
        "व्य": 551,
        "गि": 552,
        "मा<|w|>": 553,
        "आ<|w|>": 554,
        "पहले<|w|>": 555,
        "फि": 556,
        "दर्": 557,
        "वे<|w|>": 558,
        "सिंह<|w|>": 559,
        "गया।<|w|>": 560,
        "दो": 561,
        "ई।<|w|>": 562,
        "2<|w|>": 563,
        "जी<|w|>": 564,
        "स्त": 565,
        "म्": 566,
        "द्वा": 567,
        "सू": 568,
        "इं": 569,
        "कुमा": 570,
        "लगा": 571,
        "हों": 572,
        "रत<|w|>": 573,
        "खि": 574,
        "द्वारा<|w|>": 575,
        "एस": 576,
        "क्षा<|w|>": 577,
        "लेकर<|w|>": 578,
        "र्थ": 579,
        "प्रा": 580,
        "दौ": 581,
        "बर<|w|>": 582,
        "द्र<|w|>": 583,
        "1<|w|>": 584,
        "सा<|w|>": 585,
        "सभी<|w|>": 586,
        "प्रति": 587,
        "गां": 588,
        "रख": 589,
        "छ<|w|>": 590,
        "लों<|w|>": 591,
        "ंच": 592,
        "बु": 593,
        "ली": 594,
        "जन<|w|>": 595,
        "पी<|w|>": 596,
        "बना": 597,
        "होंने<|w|>": 598,
        "अधिक<|w|>": 599,
        "दिन<|w|>": 600,
        "स्प": 601,
        "ं,<|w|>": 602,
        "गी।<|w|>": 603,
        "माम": 604,
        "4<|w|>": 605,
        "ज़": 606,
        "थे।<|w|>": 607,
        "मी<|w|>": 608,
        "पुर<|w|>": 609,
        "रह<|w|>": 610,
        "सरकार<|w|>": 611,
        "गए<|w|>": 612,
        "देश": 613,
        "उन्होंने<|w|>": 614,
        "-<|w|>": 615,
        "ट्": 616,
        "क्ष<|w|>": 617,
        "पं": 618,
        "कम<|w|>": 619,
        "र्ट<|w|>": 620,
        "क्त<|w|>": 621,
        "फा": 622,
        "ये<|w|>": 623,
        "करा": 624,
        "कुछ<|w|>": 625,
        "मान<|w|>": 626,
        "ग्रा": 627,
        "वै": 628,
        "9<|w|>": 629,
        "भि": 630,
        "जै": 631,
        "रू<|w|>": 632,
        "हें<|w|>": 633,
        "कं": 634,
        "3<|w|>": 635,
        "मिल<|w|>": 636,
        "रान<|w|>": 637,
        "स्वा": 638,
        "करते<|w|>": 639,
        "श्र": 640,
        "कार्य": 641,
        "महा": 642,
        ")<|w|>": 643,
        "बै": 644,
        "त्री<|w|>": 645,
        "जू": 646,
        "क्षेत्र<|w|>": 647,
        "मान": 648,
        "पास<|w|>": 649,
        "जु": 650,
        "पे": 651,
        "8<|w|>": 652,
        "ज्": 653,
        "विका": 654,
        "थी।<|w|>": 655,
        "रुप": 656,
        "जार<|w|>": 657,
        "काम<|w|>": 658,
        "मै": 659,
        "उत्": 660,
        "एव": 661,
        "दी": 662,
        "वह<|w|>": 663,
        "6<|w|>": 664,
        "हैं,<|w|>": 665,
        "दो<|w|>": 666,
        "कारण<|w|>": 667,
        "भाग<|w|>": 668,
        "साल<|w|>": 669,
        "कई<|w|>": 670,
        "कृ": 671,
        "लोग<|w|>": 672,
        "एवं<|w|>": 673,
        "बढ़": 674,
        "ड़<|w|>": 675,
        "सर<|w|>": 676,
        "तर": 677,
        "तरह<|w|>": 678,
        "लय<|w|>": 679,
        "जान": 680,
        "यू": 681,
        "कोई<|w|>": 682,
        "ंड<|w|>": 683,
        "शुरू<|w|>": 684,
        "कुमार<|w|>": 685,
        "ची": 686,
        ":<|w|>": 687,
        "घर<|w|>": 688,
        "न,<|w|>": 689,
        "दौरान<|w|>": 690,
        "मरी": 691,
        "सब": 692,
        "बार<|w|>": 693,
        "7<|w|>": 694,
        "स्ट": 695,
        "समा": 696,
        "संक्र": 697,
        "जे<|w|>": 698,
        "हुई<|w|>": 699,
        "लने<|w|>": 700,
        "किसा": 701,
        "समय<|w|>": 702,
        "गांव<|w|>": 703,
        "ते": 704,
        "चार<|w|>": 705,
        "कॉ": 706,
        "महि": 707,
        "बो": 708,
        "फ्": 709,
        "डॉ": 710,
        "जो": 711,
        "मह": 712,
        "यत<|w|>": 713,
        "की": 714,
        "गई।<|w|>": 715,
        "देख": 716,
        "करना<|w|>": 717,
        "तों<|w|>": 718,
        "जन": 719,
        "मुख": 720,
        "रियों<|w|>": 721,
        "बात<|w|>": 722,
        "किसी<|w|>": 723,
        "विकास<|w|>": 724,
        "शे": 725,
        "द्र": 726,
        "प्रभा": 727,
        "ेंद्र<|w|>": 728,
        "्यो": 729,
        "जाने<|w|>": 730,
        "च्च": 731,
        "उन<|w|>": 732,
        "हित<|w|>": 733,
        "तर<|w|>": 734,
        "छा": 735,
        "उनके<|w|>": 736,
        "जांच<|w|>": 737,
        "अन्य<|w|>": 738,
        "साम": 739,
        "स्व": 740,
        "चौ": 741,
        "पहुंच": 742,
        "नगर<|w|>": 743,
        "तार<|w|>": 744,
        "ेंग": 745,
        "खु": 746,
        "उन्हें<|w|>": 747,
        "निय": 748,
        "किया।<|w|>": 749,
        "00<|w|>": 750,
        "मंत्री<|w|>": 751,
        "ख्": 752,
        "गो": 753,
        "लन<|w|>": 754,
        "जिला<|w|>": 755,
        "पै": 756,
        "सन<|w|>": 757,
        "अपनी<|w|>": 758,
        "वाई<|w|>": 759,
        "लॉ": 760,
        "सर्": 761,
        "वी<|w|>": 762,
        "ध्यक्ष<|w|>": 763,
        "इन": 764,
        "जब<|w|>": 765,
        "ज्ञ": 766,
        "ल,<|w|>": 767,
        "विभाग<|w|>": 768,
        "गी<|w|>": 769,
        "स्वास्थ": 770,
        "भारत<|w|>": 771,
        "किए<|w|>": 772,
        "जिले<|w|>": 773,
        "चाहि": 774,
        "मार्": 775,
        "जे": 776,
        "काे<|w|>": 777,
        "आरो": 778,
        "योग<|w|>": 779,
        "टे<|w|>": 780,
        "पर्": 781,
        "पा<|w|>": 782,
        "व्यव": 783,
        "रुपए<|w|>": 784,
        "कू": 785,
        "ंड": 786,
        "सबसे<|w|>": 787,
        "तु": 788,
        "राष्": 789,
        "वाली<|w|>": 790,
        "जब": 791,
        "रण<|w|>": 792,
        "िक<|w|>": 793,
        "यर": 794,
        "ताल<|w|>": 795,
        "भू": 796,
        "स्थि": 797,
        "शी": 798,
        "टिव<|w|>": 799,
        "ड़ी<|w|>": 800,
        "्यू": 801,
        "मामले<|w|>": 802,
        "गा<|w|>": 803,
        "अस्प": 804,
        "भी": 805,
        "ताओं<|w|>": 806,
        "ड़<|w|>": 807,
        "खे": 808,
        "तै": 809,
        "र्ड<|w|>": 810,
        "रं": 811,
        "यहां<|w|>": 812,
        "अव": 813,
        "लिया<|w|>": 814,
        "विधा": 815,
        "दान<|w|>": 816,
        "हम<|w|>": 817,
        "्यादा<|w|>": 818,
        "सकता<|w|>": 819,
        "वन<|w|>": 820,
        "बच्च": 821,
        "जारी<|w|>": 822,
        "आई": 823,
        "कै": 824,
        "निवा": 825,
        "स्वास्थ्य<|w|>": 826,
        "पार्": 827,
        "हुआ<|w|>": 828,
        "बैठ": 829,
        "दर<|w|>": 830,
        "एम": 831,
        "बहु": 832,
        "जानकारी<|w|>": 833,
        "शहर<|w|>": 834,
        "है.<|w|>": 835,
        "ऐसे<|w|>": 836,
        "णा": 837,
        "योज": 838,
        "टा<|w|>": 839,
        "वर<|w|>": 840,
        "ड़ा<|w|>": 841,
        "बजे<|w|>": 842,
        "राम": 843,
        "प्त<|w|>": 844,
        "खिला": 845,
        "नो": 846,
        "गत<|w|>": 847,
        "एम<|w|>": 848,
        "संबं": 849,
        "आई<|w|>": 850,
        "्रे": 851,
        "यर<|w|>": 852,
        "धन<|w|>": 853,
        "बीच<|w|>": 854,
        "रत": 855,
        "दि<|w|>": 856,
        "शामिल<|w|>": 857,
        "देशों<|w|>": 858,
        "मित<|w|>": 859,
        "भे": 860,
        "अस्पताल<|w|>": 861,
        "शासन<|w|>": 862,
        "ी,<|w|>": 863,
        "भ<|w|>": 864,
        "क्रि": 865,
        "विद": 866,
        "स्थित<|w|>": 867,
        "पानी<|w|>": 868,
        "पोर्ट<|w|>": 869,
        "डी<|w|>": 870,
        "हन<|w|>": 871,
        "बद": 872,
        "निया<|w|>": 873,
        "20<|w|>": 874,
        "ज्ञा": 875,
        "इससे<|w|>": 876,
        "यन<|w|>": 877,
        "अभि": 878,
        "कंप": 879,
        "पॉ": 880,
        "ंबर<|w|>": 881,
        "दोनों<|w|>": 882,
        "जाता<|w|>": 883,
        "लाख<|w|>": 884,
        "सूच": 885,
        "क्टर<|w|>": 886,
        "जाएगा।<|w|>": 887,
        "ियों<|w|>": 888,
        "सह": 889,
        "वहीं<|w|>": 890,
        "व्या": 891,
        "डे": 892,
        "तीन<|w|>": 893,
        "ं।<|w|>": 894,
        "हजार<|w|>": 895,
        "टीम<|w|>": 896,
        "ओर<|w|>": 897,
        "ंट<|w|>": 898,
        "ओ<|w|>": 899,
        "निर्मा": 900,
        "दन<|w|>": 901,
        "फ़": 902,
        "10<|w|>": 903,
        "ज्यादा<|w|>": 904,
        "रात<|w|>": 905,
        "्रा": 906,
        "मण<|w|>": 907,
        "सार<|w|>": 908,
        "दिया।<|w|>": 909,
        "उसके<|w|>": 910,
        "घा": 911,
        "स्था<|w|>": 912,
        "दर्ज<|w|>": 913,
        "हत<|w|>": 914,
        "विश्": 915,
        "स्ट<|w|>": 916,
        "यां<|w|>": 917,
        "दार<|w|>": 918,
        "पूर्व<|w|>": 919,
        "इसमें<|w|>": 920,
        "बंद<|w|>": 921,
        "तैया": 922,
        "फो": 923,
        "ट्रे": 924,
        "कार्र": 925,
        "पिछ": 926,
        "मारी<|w|>": 927,
        "फिर<|w|>": 928,
        "दस्": 929,
        "आने<|w|>": 930,
        "सकते<|w|>": 931,
        "दे<|w|>": 932,
        "धी<|w|>": 933,
        "घट": 934,
        "ठा": 935,
        "ंकि<|w|>": 936,
        "ँ<|w|>": 937,
        "सुर": 938,
        "गं": 939,
        "बहुत<|w|>": 940,
        "आर": 941,
        "ख्या<|w|>": 942,
        "मू": 943,
        "इला": 944,
        "शो": 945,
        "देने<|w|>": 946,
        "सहित<|w|>": 947,
        "अभी<|w|>": 948,
        "जों<|w|>": 949,
        "ि<|w|>": 950,
        "करी": 951,
        "कार्रवाई<|w|>": 952,
        "संख्या<|w|>": 953,
        "ड़े<|w|>": 954,
        "जग": 955,
        "या,<|w|>": 956,
        "क्ति<|w|>": 957,
        "201": 958,
        "कल<|w|>": 959,
        "पंचा": 960,
        "फै": 961,
        "लक्ष": 962,
        "तथा<|w|>": 963,
        "वायर": 964,
        "क्रम<|w|>": 965,
        "विद्या": 966,
        "जिसमें<|w|>": 967,
        "गए।<|w|>": 968,
        "धार<|w|>": 969,
        "लं": 970,
        "धान<|w|>": 971,
        "जरू": 972,
        "निक<|w|>": 973,
        "स्कू": 974,
        "धि<|w|>": 975,
        "पूर्ण<|w|>": 976,
        "वल<|w|>": 977,
        "छो": 978,
        "वज": 979,
        "शिक्ष": 980,
        "की।<|w|>": 981,
        "दुका": 982,
        "रिपोर्ट<|w|>": 983,
        "रवि": 984,
        "उनकी<|w|>": 985,
        "चे": 986,
        "शर्": 987,
        "बह<|w|>": 988,
        "बाइ": 989,
        "ड़ी<|w|>": 990,
        "थाना<|w|>": 991,
        "यक<|w|>": 992,
        "नाव<|w|>": 993,
        "रित<|w|>": 994,
        "राज्य<|w|>": 995,
        "ौर<|w|>": 996,
        "परी": 997,
        "मौत<|w|>": 998,
        "युक्त<|w|>": 999
    },
    "merge_rules": [
        [
            "े",
            "<|w|>"
        ],
        [
            "ा",
            "<|w|>"
        ],
        [
            "ी",
            "<|w|>"
        ],
        [
            "र",
            "<|w|>"
        ],
        [
            "ं",
            "<|w|>"
        ],
        [
            "क",
            "े<|w|>"
        ],
        [
            "।",
            "<|w|>"
        ],
        [
            "म",
            "े"
        ],
        [
            "न",
            "<|w|>"
        ],
        [
            "्",
            "र"
        ],
        [
            "न",
            "े<|w|>"
        ],
        [
            "ह",
            "ै"
        ],
        [
            "मे",
            "ं<|w|>"
        ],
        [
            "ो",
            "<|w|>"
        ],
        [
            "र",
            "्"
        ],
        [
            "क",
            "ी<|w|>"
        ],
        [
            "ो",
            "ं<|w|>"
        ],
        [
            ",",
            "<|w|>"
        ],
        [
            "क",
            "<|w|>"
        ],
        [
            "त",
            "<|w|>"
        ],
        [
            "स",
            "े<|w|>"
        ],
        [
            "क",
            "ि"
        ],
        [
            "व",
            "ा"
        ],
        [
            "क",
            "ा"
        ],
        [
            "स",
            "्"
        ],
        [
            "ल",
            "<|w|>"
        ],
        [
            "य",
            "ा<|w|>"
        ],
        [
            "स",
            "<|w|>"
        ],
        [
            "क",
            "ो<|w|>"
        ],
        [
            "्",
            "य"
        ],
        [
            "म",
            "ा"
        ],
        [
            "क",
            "्"
        ],
        [
            "क",
            "ा<|w|>"
        ],
        [
            "ए",
            "<|w|>"
        ],
        [
            "र",
            "ा"
        ],
        [
            "प",
            "्र"
        ],
        [
            "है",
            "।<|w|>"
        ],
        [
            "ल",
            "ि"
        ],
        [
            "व",
            "ि"
        ],
        [
            "म",
            "<|w|>"
        ],
        [
            "स",
            "ा"
        ],
        [
            "ज",
            "ा"
        ],
        [
            "न",
            "ि"
        ],
        [
            "क",
            "र"
        ],
        [
            "न",
            "ा<|w|>"
        ],
        [
            "ब",
            "ा"
        ],
        [
            "ल",
            "ा"
        ],
        [
            "औ",
            "र<|w|>"
        ],
        [
            "य",
            "ा"
        ],
        [
            "क",
            "र<|w|>"
        ],
        [
            "र",
            "ह"
        ],
        [
            "ई",
            "<|w|>"
        ],
        [
            "प",
            "र<|w|>"
        ],
        [
            "व",
            "<|w|>"
        ],
        [
            "त",
            "ा"
        ],
        [
            "कि",
            "<|w|>"
        ],
        [
            "र",
            "ि"
        ],
        [
            "द",
            "<|w|>"
        ],
        [
            "त",
            "ा<|w|>"
        ],
        [
            "र",
            "ी<|w|>"
        ],
        [
            "ह",
            "<|w|>"
        ],
        [
            "द",
            "ि"
        ],
        [
            "त",
            "ि"
        ],
        [
            "ह",
            "ा"
        ],
        [
            "भ",
            "ी<|w|>"
        ],
        [
            "य",
            "<|w|>"
        ],
        [
            "प",
            "ा"
        ],
        [
            "स",
            "ं"
        ],
        [
            "ट",
            "<|w|>"
        ],
        [
            "द",
            "े"
        ],
        [
            "ग",
            "<|w|>"
        ],
        [
            "ह",
            "ो"
        ],
        [
            "क्",
            "ष"
        ],
        [
            "ल",
            "े<|w|>"
        ],
        [
            "त",
            "्"
        ],
        [
            "ज",
            "ि"
        ],
        [
            "न",
            "ा"
        ],
        [
            "म",
            "ि"
        ],
        [
            "ल",
            "े"
        ],
        [
            "ग",
            "ा"
        ],
        [
            "ह",
            "ु"
        ],
        [
            "ह",
            "ी"
        ],
        [
            "ण",
            "<|w|>"
        ],
        [
            "भ",
            "ा"
        ],
        [
            "लि",
            "ए<|w|>"
        ],
        [
            "है",
            "ं"
        ],
        [
            "र",
            "ो"
        ],
        [
            "च",
            "ा"
        ],
        [
            "स",
            "ि"
        ],
        [
            "श",
            "<|w|>"
        ],
        [
            "ज",
            "<|w|>"
        ],
        [
            "त",
            "े<|w|>"
        ],
        [
            "ही",
            "ं<|w|>"
        ],
        [
            "है",
            "<|w|>"
        ],
        [
            "ड",
            "़"
        ],
        [
            "े",
            "ं"
        ],
        [
            "ब",
            "<|w|>"
        ],
        [
            "प",
            "ु"
        ],
        [
            "थ",
            "ा"
        ],
        [
            "इ",
            "स"
        ],
        [
            "न",
            "ी<|w|>"
        ],
        [
            "ध",
            "ि"
        ],
        [
            "क",
            "ो"
        ],
        [
            "न",
            "्"
        ],
        [
            "द",
            "ा"
        ],
        [
            "द",
            "्"
        ],
        [
            "हैं",
            "।<|w|>"
        ],
        [
            "ह",
            "ी<|w|>"
        ],
        [
            "ल",
            "ा<|w|>"
        ],
        [
            "य",
            "ों<|w|>"
        ],
        [
            "न",
            "हीं<|w|>"
        ],
        [
            "ल",
            "ो"
        ],
        [
            "इ",
            "स<|w|>"
        ],
        [
            "ल",
            "ी<|w|>"
        ],
        [
            "्य",
            "<|w|>"
        ],
        [
            "र",
            "ू"
        ],
        [
            "ह",
            "ि"
        ],
        [
            "प",
            "<|w|>"
        ],
        [
            "ी",
            "।<|w|>"
        ],
        [
            "च",
            "<|w|>"
        ],
        [
            "श",
            "ा"
        ],
        [
            "ड",
            "<|w|>"
        ],
        [
            "र",
            "ा<|w|>"
        ],
        [
            "र",
            "ी"
        ],
        [
            "क",
            "ु"
        ],
        [
            "म",
            "ु"
        ],
        [
            "त",
            "ी<|w|>"
        ],
        [
            "ति",
            "<|w|>"
        ],
        [
            "ए",
            "क<|w|>"
        ],
        [
            "्य",
            "ा"
        ],
        [
            "0",
            "<|w|>"
        ],
        [
            "स",
            "ु"
        ],
        [
            "ध",
            "ा"
        ],
        [
            "कर",
            "ने<|w|>"
        ],
        [
            "या",
            "।<|w|>"
        ],
        [
            "कि",
            "या<|w|>"
        ],
        [
            "स",
            "ी<|w|>"
        ],
        [
            "प",
            "ू"
        ],
        [
            "ं",
            "ग"
        ],
        [
            "क",
            "्र"
        ],
        [
            "ह",
            "ो<|w|>"
        ],
        [
            "थ",
            "<|w|>"
        ],
        [
            "अ",
            "प"
        ],
        [
            "त",
            "्र"
        ],
        [
            "न",
            "ों<|w|>"
        ],
        [
            "श",
            "ि"
        ],
        [
            "ज",
            "ा<|w|>"
        ],
        [
            "स",
            "म"
        ],
        [
            "ल",
            "्"
        ],
        [
            "स",
            "ी"
        ],
        [
            "े",
            "।<|w|>"
        ],
        [
            "े",
            "ं<|w|>"
        ],
        [
            "वा",
            "र<|w|>"
        ],
        [
            "स्",
            "थ"
        ],
        [
            "त",
            "क<|w|>"
        ],
        [
            "द",
            "ी<|w|>"
        ],
        [
            "ट",
            "्र"
        ],
        [
            "य",
            "ह<|w|>"
        ],
        [
            "य",
            "ो"
        ],
        [
            "क",
            "े"
        ],
        [
            "स",
            "र"
        ],
        [
            "ि",
            "त<|w|>"
        ],
        [
            "न",
            "े"
        ],
        [
            "बा",
            "द<|w|>"
        ],
        [
            "अ",
            "धि"
        ],
        [
            ".",
            "<|w|>"
        ],
        [
            "अ",
            "न"
        ],
        [
            "ट",
            "ि"
        ],
        [
            "ी",
            "य<|w|>"
        ],
        [
            "ष",
            "्"
        ],
        [
            "ब",
            "ि"
        ],
        [
            "प",
            "ह"
        ],
        [
            "श",
            "्"
        ],
        [
            "म",
            "ं"
        ],
        [
            "स",
            "क"
        ],
        [
            "ं",
            "ग<|w|>"
        ],
        [
            "र",
            "ु"
        ],
        [
            "ग",
            "या<|w|>"
        ],
        [
            "रा",
            "ज"
        ],
        [
            "ओ",
            "ं<|w|>"
        ],
        [
            "ड",
            "ि"
        ],
        [
            "त्",
            "र<|w|>"
        ],
        [
            "का",
            "र्"
        ],
        [
            "सा",
            "थ<|w|>"
        ],
        [
            "का",
            "र<|w|>"
        ],
        [
            "र",
            "े"
        ],
        [
            "क",
            "ह"
        ],
        [
            "ग",
            "ों<|w|>"
        ],
        [
            "ग",
            "्र"
        ],
        [
            "व",
            "र्"
        ],
        [
            "ब",
            "ी"
        ],
        [
            "ब",
            "ता"
        ],
        [
            "का",
            "र"
        ],
        [
            "प",
            "रि"
        ],
        [
            "श",
            "ु"
        ],
        [
            "रह",
            "े<|w|>"
        ],
        [
            "ब",
            "ं"
        ],
        [
            "उ",
            "न्"
        ],
        [
            "त",
            "ो<|w|>"
        ],
        [
            "प",
            "्"
        ],
        [
            "दे",
            "श<|w|>"
        ],
        [
            "म",
            "ी"
        ],
        [
            "स",
            "े"
        ],
        [
            "लो",
            "गों<|w|>"
        ],
        [
            "र",
            "े<|w|>"
        ],
        [
            "उ",
            "न"
        ],
        [
            "व",
            "े"
        ],
        [
            "सि",
            "ं"
        ],
        [
            "प",
            "ी"
        ],
        [
            "ध",
            "<|w|>"
        ],
        [
            "रह",
            "ा<|w|>"
        ],
        [
            "ज",
            "ी"
        ],
        [
            "न",
            "ी"
        ],
        [
            "ट",
            "ी<|w|>"
        ],
        [
            "ख",
            "ा"
        ],
        [
            "य",
            "ु"
        ],
        [
            "ट",
            "ी"
        ],
        [
            "नि",
            "र्"
        ],
        [
            "जा",
            "ए"
        ],
        [
            "द",
            "ु"
        ],
        [
            "है",
            ",<|w|>"
        ],
        [
            "फ",
            "<|w|>"
        ],
        [
            "ह",
            "र<|w|>"
        ],
        [
            "म",
            "ौ"
        ],
        [
            "बता",
            "या<|w|>"
        ],
        [
            "का",
            "री<|w|>"
        ],
        [
            "प",
            "ि"
        ],
        [
            "5",
            "<|w|>"
        ],
        [
            "द",
            "ू"
        ],
        [
            "पु",
            "लि"
        ],
        [
            "च",
            "ु"
        ],
        [
            "श",
            "न<|w|>"
        ],
        [
            "व",
            "ा<|w|>"
        ],
        [
            "ट",
            "र<|w|>"
        ],
        [
            "उ",
            "प"
        ],
        [
            "कह",
            "ा<|w|>"
        ],
        [
            "गा",
            "।<|w|>"
        ],
        [
            "र",
            "ों<|w|>"
        ],
        [
            "रह",
            "ी<|w|>"
        ],
        [
            "ल",
            "ग"
        ],
        [
            "ू",
            "<|w|>"
        ],
        [
            "है",
            "ं<|w|>"
        ],
        [
            "ं",
            "च<|w|>"
        ],
        [
            "हु",
            "ए<|w|>"
        ],
        [
            "ढ",
            "़"
        ],
        [
            "ले",
            "कि"
        ],
        [
            "पुलि",
            "स<|w|>"
        ],
        [
            "इस",
            "के<|w|>"
        ],
        [
            "था",
            "।<|w|>"
        ],
        [
            "त",
            "ी"
        ],
        [
            "च",
            "्"
        ],
        [
            "ट",
            "ा"
        ],
        [
            "ै",
            "ं"
        ],
        [
            "ग",
            "ु"
        ],
        [
            "को",
            "रो"
        ],
        [
            "ट",
            "े"
        ],
        [
            "इ",
            "न<|w|>"
        ],
        [
            "व",
            "ी"
        ],
        [
            "अ",
            "ं"
        ],
        [
            "जि",
            "स"
        ],
        [
            "उ",
            "स"
        ],
        [
            "ड",
            "ा"
        ],
        [
            "लेकि",
            "न<|w|>"
        ],
        [
            "ग",
            "ई<|w|>"
        ],
        [
            "दि",
            "या<|w|>"
        ],
        [
            "हो",
            "ने<|w|>"
        ],
        [
            "ब",
            "्"
        ],
        [
            "ब",
            "े"
        ],
        [
            "वा",
            "ले<|w|>"
        ],
        [
            "हा",
            "ं<|w|>"
        ],
        [
            "द",
            "ा<|w|>"
        ],
        [
            "ए",
            "।<|w|>"
        ],
        [
            "क",
            "ों<|w|>"
        ],
        [
            "च",
            "ि"
        ],
        [
            "ष",
            "<|w|>"
        ],
        [
            "कोरो",
            "ना<|w|>"
        ],
        [
            "पू",
            "र्"
        ],
        [
            "क",
            "र्"
        ],
        [
            "ख",
            "<|w|>"
        ],
        [
            "स्",
            "था"
        ],
        [
            "प",
            "हु"
        ],
        [
            "प",
            "ो"
        ],
        [
            "म",
            "ो"
        ],
        [
            "र",
            ",<|w|>"
        ],
        [
            "ड",
            "ी"
        ],
        [
            "थ",
            "ा<|w|>"
        ],
        [
            "ज",
            "ो<|w|>"
        ],
        [
            "अप",
            "ने<|w|>"
        ],
        [
            "अन",
            "ु"
        ],
        [
            "ध",
            "्य"
        ],
        [
            "स",
            "ो"
        ],
        [
            "ग",
            "र<|w|>"
        ],
        [
            "अ",
            "ब<|w|>"
        ],
        [
            "रू",
            "प<|w|>"
        ],
        [
            "2",
            "0"
        ],
        [
            "क्ष",
            "े"
        ],
        [
            "व",
            "्य"
        ],
        [
            "ग",
            "ि"
        ],
        [
            "म",
            "ा<|w|>"
        ],
        [
            "आ",
            "<|w|>"
        ],
        [
            "पह",
            "ले<|w|>"
        ],
        [
            "फ",
            "ि"
        ],
        [
            "द",
            "र्"
        ],
        [
            "व",
            "े<|w|>"
        ],
        [
            "सिं",
            "ह<|w|>"
        ],
        [
            "ग",
            "या।<|w|>"
        ],
        [
            "द",
            "ो"
        ],
        [
            "ई",
            "।<|w|>"
        ],
        [
            "2",
            "<|w|>"
        ],
        [
            "ज",
            "ी<|w|>"
        ],
        [
            "स्",
            "त"
        ],
        [
            "म",
            "्"
        ],
        [
            "द्",
            "वा"
        ],
        [
            "स",
            "ू"
        ],
        [
            "इ",
            "ं"
        ],
        [
            "कु",
            "मा"
        ],
        [
            "ल",
            "गा"
        ],
        [
            "हो",
            "ं"
        ],
        [
            "र",
            "त<|w|>"
        ],
        [
            "ख",
            "ि"
        ],
        [
            "द्वा",
            "रा<|w|>"
        ],
        [
            "ए",
            "स"
        ],
        [
            "क्ष",
            "ा<|w|>"
        ],
        [
            "ले",
            "कर<|w|>"
        ],
        [
            "र्",
            "थ"
        ],
        [
            "प्र",
            "ा"
        ],
        [
            "द",
            "ौ"
        ],
        [
            "ब",
            "र<|w|>"
        ],
        [
            "द्",
            "र<|w|>"
        ],
        [
            "1",
            "<|w|>"
        ],
        [
            "स",
            "ा<|w|>"
        ],
        [
            "स",
            "भी<|w|>"
        ],
        [
            "प्र",
            "ति"
        ],
        [
            "गा",
            "ं"
        ],
        [
            "र",
            "ख"
        ],
        [
            "छ",
            "<|w|>"
        ],
        [
            "ल",
            "ों<|w|>"
        ],
        [
            "ं",
            "च"
        ],
        [
            "ब",
            "ु"
        ],
        [
            "ल",
            "ी"
        ],
        [
            "ज",
            "न<|w|>"
        ],
        [
            "प",
            "ी<|w|>"
        ],
        [
            "ब",
            "ना"
        ],
        [
            "हों",
            "ने<|w|>"
        ],
        [
            "अधि",
            "क<|w|>"
        ],
        [
            "दि",
            "न<|w|>"
        ],
        [
            "स्",
            "प"
        ],
        [
            "ं",
            ",<|w|>"
        ],
        [
            "ग",
            "ी।<|w|>"
        ],
        [
            "मा",
            "म"
        ],
        [
            "4",
            "<|w|>"
        ],
        [
            "ज",
            "़"
        ],
        [
            "थ",
            "े।<|w|>"
        ],
        [
            "म",
            "ी<|w|>"
        ],
        [
            "पु",
            "र<|w|>"
        ],
        [
            "रह",
            "<|w|>"
        ],
        [
            "सर",
            "कार<|w|>"
        ],
        [
            "ग",
            "ए<|w|>"
        ],
        [
            "दे",
            "श"
        ],
        [
            "उन्",
            "होंने<|w|>"
        ],
        [
            "-",
            "<|w|>"
        ],
        [
            "ट",
            "्"
        ],
        [
            "क्ष",
            "<|w|>"
        ],
        [
            "प",
            "ं"
        ],
        [
            "क",
            "म<|w|>"
        ],
        [
            "र्",
            "ट<|w|>"
        ],
        [
            "क्",
            "त<|w|>"
        ],
        [
            "फ",
            "ा"
        ],
        [
            "य",
            "े<|w|>"
        ],
        [
            "क",
            "रा"
        ],
        [
            "कु",
            "छ<|w|>"
        ],
        [
            "मा",
            "न<|w|>"
        ],
        [
            "ग्र",
            "ा"
        ],
        [
            "व",
            "ै"
        ],
        [
            "9",
            "<|w|>"
        ],
        [
            "भ",
            "ि"
        ],
        [
            "ज",
            "ै"
        ],
        [
            "रू",
            "<|w|>"
        ],
        [
            "ह",
            "ें<|w|>"
        ],
        [
            "क",
            "ं"
        ],
        [
            "3",
            "<|w|>"
        ],
        [
            "मि",
            "ल<|w|>"
        ],
        [
            "रा",
            "न<|w|>"
        ],
        [
            "स्",
            "वा"
        ],
        [
            "कर",
            "ते<|w|>"
        ],
        [
            "श",
            "्र"
        ],
        [
            "कार्",
            "य"
        ],
        [
            "म",
            "हा"
        ],
        [
            ")",
            "<|w|>"
        ],
        [
            "ब",
            "ै"
        ],
        [
            "त्र",
            "ी<|w|>"
        ],
        [
            "ज",
            "ू"
        ],
        [
            "क्षे",
            "त्र<|w|>"
        ],
        [
            "मा",
            "न"
        ],
        [
            "पा",
            "स<|w|>"
        ],
        [
            "ज",
            "ु"
        ],
        [
            "प",
            "े"
        ],
        [
            "8",
            "<|w|>"
        ],
        [
            "ज",
            "्"
        ],
        [
            "वि",
            "का"
        ],
        [
            "थ",
            "ी।<|w|>"
        ],
        [
            "रु",
            "प"
        ],
        [
            "जा",
            "र<|w|>"
        ],
        [
            "का",
            "म<|w|>"
        ],
        [
            "म",
            "ै"
        ],
        [
            "उ",
            "त्"
        ],
        [
            "ए",
            "व"
        ],
        [
            "द",
            "ी"
        ],
        [
            "व",
            "ह<|w|>"
        ],
        [
            "6",
            "<|w|>"
        ],
        [
            "हैं",
            ",<|w|>"
        ],
        [
            "द",
            "ो<|w|>"
        ],
        [
            "कार",
            "ण<|w|>"
        ],
        [
            "भा",
            "ग<|w|>"
        ],
        [
            "सा",
            "ल<|w|>"
        ],
        [
            "क",
            "ई<|w|>"
        ],
        [
            "क",
            "ृ"
        ],
        [
            "लो",
            "ग<|w|>"
        ],
        [
            "एव",
            "ं<|w|>"
        ],
        [
            "ब",
            "ढ़"
        ],
        [
            "ड़",
            "<|w|>"
        ],
        [
            "स",
            "र<|w|>"
        ],
        [
            "त",
            "र"
        ],
        [
            "त",
            "रह<|w|>"
        ],
        [
            "ल",
            "य<|w|>"
        ],
        [
            "जा",
            "न"
        ],
        [
            "य",
            "ू"
        ],
        [
            "को",
            "ई<|w|>"
        ],
        [
            "ं",
            "ड<|w|>"
        ],
        [
            "शु",
            "रू<|w|>"
        ],
        [
            "कुमा",
            "र<|w|>"
        ],
        [
            "च",
            "ी"
        ],
        [
            ":",
            "<|w|>"
        ],
        [
            "घ",
            "र<|w|>"
        ],
        [
            "न",
            ",<|w|>"
        ],
        [
            "दौ",
            "रान<|w|>"
        ],
        [
            "म",
            "री"
        ],
        [
            "स",
            "ब"
        ],
        [
            "बा",
            "र<|w|>"
        ],
        [
            "7",
            "<|w|>"
        ],
        [
            "स्",
            "ट"
        ],
        [
            "स",
            "मा"
        ],
        [
            "सं",
            "क्र"
        ],
        [
            "ज",
            "े<|w|>"
        ],
        [
            "हु",
            "ई<|w|>"
        ],
        [
            "ल",
            "ने<|w|>"
        ],
        [
            "कि",
            "सा"
        ],
        [
            "सम",
            "य<|w|>"
        ],
        [
            "गां",
            "व<|w|>"
        ],
        [
            "त",
            "े"
        ],
        [
            "चा",
            "र<|w|>"
        ],
        [
            "क",
            "ॉ"
        ],
        [
            "म",
            "हि"
        ],
        [
            "ब",
            "ो"
        ],
        [
            "फ",
            "्"
        ],
        [
            "ड",
            "ॉ"
        ],
        [
            "ज",
            "ो"
        ],
        [
            "म",
            "ह"
        ],
        [
            "य",
            "त<|w|>"
        ],
        [
            "क",
            "ी"
        ],
        [
            "ग",
            "ई।<|w|>"
        ],
        [
            "दे",
            "ख"
        ],
        [
            "कर",
            "ना<|w|>"
        ],
        [
            "त",
            "ों<|w|>"
        ],
        [
            "ज",
            "न"
        ],
        [
            "मु",
            "ख"
        ],
        [
            "रि",
            "यों<|w|>"
        ],
        [
            "बा",
            "त<|w|>"
        ],
        [
            "कि",
            "सी<|w|>"
        ],
        [
            "विका",
            "स<|w|>"
        ],
        [
            "श",
            "े"
        ],
        [
            "द",
            "्र"
        ],
        [
            "प्र",
            "भा"
        ],
        [
            "ें",
            "द्र<|w|>"
        ],
        [
            "्य",
            "ो"
        ],
        [
            "जा",
            "ने<|w|>"
        ],
        [
            "च्",
            "च"
        ],
        [
            "उ",
            "न<|w|>"
        ],
        [
            "हि",
            "त<|w|>"
        ],
        [
            "त",
            "र<|w|>"
        ],
        [
            "छ",
            "ा"
        ],
        [
            "उन",
            "के<|w|>"
        ],
        [
            "जा",
            "ंच<|w|>"
        ],
        [
            "अन",
            "्य<|w|>"
        ],
        [
            "सा",
            "म"
        ],
        [
            "स्",
            "व"
        ],
        [
            "च",
            "ौ"
        ],
        [
            "पहु",
            "ंच"
        ],
        [
            "न",
            "गर<|w|>"
        ],
        [
            "ता",
            "र<|w|>"
        ],
        [
            "ें",
            "ग"
        ],
        [
            "ख",
            "ु"
        ],
        [
            "उन्",
            "हें<|w|>"
        ],
        [
            "नि",
            "य"
        ],
        [
            "कि",
            "या।<|w|>"
        ],
        [
            "0",
            "0<|w|>"
        ],
        [
            "मं",
            "त्री<|w|>"
        ],
        [
            "ख",
            "्"
        ],
        [
            "ग",
            "ो"
        ],
        [
            "ल",
            "न<|w|>"
        ],
        [
            "जि",
            "ला<|w|>"
        ],
        [
            "प",
            "ै"
        ],
        [
            "स",
            "न<|w|>"
        ],
        [
            "अप",
            "नी<|w|>"
        ],
        [
            "वा",
            "ई<|w|>"
        ],
        [
            "ल",
            "ॉ"
        ],
        [
            "स",
            "र्"
        ],
        [
            "व",
            "ी<|w|>"
        ],
        [
            "ध्य",
            "क्ष<|w|>"
        ],
        [
            "इ",
            "न"
        ],
        [
            "ज",
            "ब<|w|>"
        ],
        [
            "ज्",
            "ञ"
        ],
        [
            "ल",
            ",<|w|>"
        ],
        [
            "वि",
            "भाग<|w|>"
        ],
        [
            "ग",
            "ी<|w|>"
        ],
        [
            "स्वा",
            "स्थ"
        ],
        [
            "भा",
            "रत<|w|>"
        ],
        [
            "कि",
            "ए<|w|>"
        ],
        [
            "जि",
            "ले<|w|>"
        ],
        [
            "चा",
            "हि"
        ],
        [
            "मा",
            "र्"
        ],
        [
            "ज",
            "े"
        ],
        [
            "का",
            "े<|w|>"
        ],
        [
            "आ",
            "रो"
        ],
        [
            "यो",
            "ग<|w|>"
        ],
        [
            "ट",
            "े<|w|>"
        ],
        [
            "प",
            "र्"
        ],
        [
            "प",
            "ा<|w|>"
        ],
        [
            "व्य",
            "व"
        ],
        [
            "रुप",
            "ए<|w|>"
        ],
        [
            "क",
            "ू"
        ],
        [
            "ं",
            "ड"
        ],
        [
            "सब",
            "से<|w|>"
        ],
        [
            "त",
            "ु"
        ],
        [
            "रा",
            "ष्"
        ],
        [
            "वा",
            "ली<|w|>"
        ],
        [
            "ज",
            "ब"
        ],
        [
            "र",
            "ण<|w|>"
        ],
        [
            "ि",
            "क<|w|>"
        ],
        [
            "य",
            "र"
        ],
        [
            "ता",
            "ल<|w|>"
        ],
        [
            "भ",
            "ू"
        ],
        [
            "स्थ",
            "ि"
        ],
        [
            "श",
            "ी"
        ],
        [
            "टि",
            "व<|w|>"
        ],
        [
            "ड़",
            "ी<|w|>"
        ],
        [
            "्य",
            "ू"
        ],
        [
            "माम",
            "ले<|w|>"
        ],
        [
            "ग",
            "ा<|w|>"
        ],
        [
            "अ",
            "स्प"
        ],
        [
            "भ",
            "ी"
        ],
        [
            "ता",
            "ओं<|w|>"
        ],
        [
            "ड़",
            "<|w|>"
        ],
        [
            "ख",
            "े"
        ],
        [
            "त",
            "ै"
        ],
        [
            "र्",
            "ड<|w|>"
        ],
        [
            "र",
            "ं"
        ],
        [
            "य",
            "हां<|w|>"
        ],
        [
            "अ",
            "व"
        ],
        [
            "लि",
            "या<|w|>"
        ],
        [
            "वि",
            "धा"
        ],
        [
            "दा",
            "न<|w|>"
        ],
        [
            "ह",
            "म<|w|>"
        ],
        [
            "्या",
            "दा<|w|>"
        ],
        [
            "सक",
            "ता<|w|>"
        ],
        [
            "व",
            "न<|w|>"
        ],
        [
            "ब",
            "च्च"
        ],
        [
            "जा",
            "री<|w|>"
        ],
        [
            "आ",
            "ई"
        ],
        [
            "क",
            "ै"
        ],
        [
            "नि",
            "वा"
        ],
        [
            "स्वास्थ",
            "्य<|w|>"
        ],
        [
            "पा",
            "र्"
        ],
        [
            "हु",
            "आ<|w|>"
        ],
        [
            "बै",
            "ठ"
        ],
        [
            "द",
            "र<|w|>"
        ],
        [
            "ए",
            "म"
        ],
        [
            "ब",
            "हु"
        ],
        [
            "जान",
            "कारी<|w|>"
        ],
        [
            "श",
            "हर<|w|>"
        ],
        [
            "है",
            ".<|w|>"
        ],
        [
            "ऐ",
            "से<|w|>"
        ],
        [
            "ण",
            "ा"
        ],
        [
            "यो",
            "ज"
        ],
        [
            "ट",
            "ा<|w|>"
        ],
        [
            "व",
            "र<|w|>"
        ],
        [
            "ड़",
            "ा<|w|>"
        ],
        [
            "ब",
            "जे<|w|>"
        ],
        [
            "रा",
            "म"
        ],
        [
            "प्",
            "त<|w|>"
        ],
        [
            "खि",
            "ला"
        ],
        [
            "न",
            "ो"
        ],
        [
            "ग",
            "त<|w|>"
        ],
        [
            "ए",
            "म<|w|>"
        ],
        [
            "सं",
            "बं"
        ],
        [
            "आ",
            "ई<|w|>"
        ],
        [
            "्र",
            "े"
        ],
        [
            "य",
            "र<|w|>"
        ],
        [
            "ध",
            "न<|w|>"
        ],
        [
            "बी",
            "च<|w|>"
        ],
        [
            "र",
            "त"
        ],
        [
            "दि",
            "<|w|>"
        ],
        [
            "शा",
            "मिल<|w|>"
        ],
        [
            "देश",
            "ों<|w|>"
        ],
        [
            "मि",
            "त<|w|>"
        ],
        [
            "भ",
            "े"
        ],
        [
            "अस्प",
            "ताल<|w|>"
        ],
        [
            "शा",
            "सन<|w|>"
        ],
        [
            "ी",
            ",<|w|>"
        ],
        [
            "भ",
            "<|w|>"
        ],
        [
            "क्र",
            "ि"
        ],
        [
            "वि",
            "द"
        ],
        [
            "स्थ",
            "ित<|w|>"
        ],
        [
            "पा",
            "नी<|w|>"
        ],
        [
            "पो",
            "र्ट<|w|>"
        ],
        [
            "ड",
            "ी<|w|>"
        ],
        [
            "ह",
            "न<|w|>"
        ],
        [
            "ब",
            "द"
        ],
        [
            "नि",
            "या<|w|>"
        ],
        [
            "2",
            "0<|w|>"
        ],
        [
            "ज्ञ",
            "ा"
        ],
        [
            "इस",
            "से<|w|>"
        ],
        [
            "य",
            "न<|w|>"
        ],
        [
            "अ",
            "भि"
        ],
        [
            "कं",
            "प"
        ],
        [
            "प",
            "ॉ"
        ],
        [
            "ं",
            "बर<|w|>"
        ],
        [
            "दो",
            "नों<|w|>"
        ],
        [
            "जा",
            "ता<|w|>"
        ],
        [
            "ला",
            "ख<|w|>"
        ],
        [
            "सू",
            "च"
        ],
        [
            "क्",
            "टर<|w|>"
        ],
        [
            "जाए",
            "गा।<|w|>"
        ],
        [
            "ि",
            "यों<|w|>"
        ],
        [
            "स",
            "ह"
        ],
        [
            "व",
            "हीं<|w|>"
        ],
        [
            "व",
            "्या"
        ],
        [
            "ड",
            "े"
        ],
        [
            "ती",
            "न<|w|>"
        ],
        [
            "ं",
            "।<|w|>"
        ],
        [
            "ह",
            "जार<|w|>"
        ],
        [
            "टी",
            "म<|w|>"
        ],
        [
            "ओ",
            "र<|w|>"
        ],
        [
            "ं",
            "ट<|w|>"
        ],
        [
            "ओ",
            "<|w|>"
        ],
        [
            "निर्",
            "मा"
        ],
        [
            "द",
            "न<|w|>"
        ],
        [
            "फ",
            "़"
        ],
        [
            "1",
            "0<|w|>"
        ],
        [
            "ज",
            "्यादा<|w|>"
        ],
        [
            "रा",
            "त<|w|>"
        ],
        [
            "्र",
            "ा"
        ],
        [
            "म",
            "ण<|w|>"
        ],
        [
            "सा",
            "र<|w|>"
        ],
        [
            "दि",
            "या।<|w|>"
        ],
        [
            "उस",
            "के<|w|>"
        ],
        [
            "घ",
            "ा"
        ],
        [
            "स्थ",
            "ा<|w|>"
        ],
        [
            "दर्",
            "ज<|w|>"
        ],
        [
            "ह",
            "त<|w|>"
        ],
        [
            "वि",
            "श्"
        ],
        [
            "स्",
            "ट<|w|>"
        ],
        [
            "या",
            "ं<|w|>"
        ],
        [
            "दा",
            "र<|w|>"
        ],
        [
            "पूर्",
            "व<|w|>"
        ],
        [
            "इस",
            "में<|w|>"
        ],
        [
            "बं",
            "द<|w|>"
        ],
        [
            "तै",
            "या"
        ],
        [
            "फ",
            "ो"
        ],
        [
            "ट्र",
            "े"
        ],
        [
            "कार",
            "्र"
        ],
        [
            "पि",
            "छ"
        ],
        [
            "मा",
            "री<|w|>"
        ],
        [
            "फि",
            "र<|w|>"
        ],
        [
            "द",
            "स्"
        ],
        [
            "आ",
            "ने<|w|>"
        ],
        [
            "सक",
            "ते<|w|>"
        ],
        [
            "द",
            "े<|w|>"
        ],
        [
            "ध",
            "ी<|w|>"
        ],
        [
            "घ",
            "ट"
        ],
        [
            "ठ",
            "ा"
        ],
        [
            "ं",
            "कि<|w|>"
        ],
        [
            "ँ",
            "<|w|>"
        ],
        [
            "सु",
            "र"
        ],
        [
            "ग",
            "ं"
        ],
        [
            "बहु",
            "त<|w|>"
        ],
        [
            "आ",
            "र"
        ],
        [
            "ख्",
            "या<|w|>"
        ],
        [
            "म",
            "ू"
        ],
        [
            "इ",
            "ला"
        ],
        [
            "श",
            "ो"
        ],
        [
            "दे",
            "ने<|w|>"
        ],
        [
            "स",
            "हित<|w|>"
        ],
        [
            "अ",
            "भी<|w|>"
        ],
        [
            "ज",
            "ों<|w|>"
        ],
        [
            "ि",
            "<|w|>"
        ],
        [
            "कर",
            "ी"
        ],
        [
            "कार्र",
            "वाई<|w|>"
        ],
        [
            "सं",
            "ख्या<|w|>"
        ],
        [
            "ड़",
            "े<|w|>"
        ],
        [
            "ज",
            "ग"
        ],
        [
            "या",
            ",<|w|>"
        ],
        [
            "क्",
            "ति<|w|>"
        ],
        [
            "20",
            "1"
        ],
        [
            "क",
            "ल<|w|>"
        ],
        [
            "पं",
            "चा"
        ],
        [
            "फ",
            "ै"
        ],
        [
            "ल",
            "क्ष"
        ],
        [
            "त",
            "था<|w|>"
        ],
        [
            "वा",
            "यर"
        ],
        [
            "क्र",
            "म<|w|>"
        ],
        [
            "विद",
            "्या"
        ],
        [
            "जिस",
            "में<|w|>"
        ],
        [
            "ग",
            "ए।<|w|>"
        ],
        [
            "धा",
            "र<|w|>"
        ],
        [
            "ल",
            "ं"
        ],
        [
            "धा",
            "न<|w|>"
        ],
        [
            "ज",
            "रू"
        ],
        [
            "नि",
            "क<|w|>"
        ],
        [
            "स्",
            "कू"
        ],
        [
            "धि",
            "<|w|>"
        ],
        [
            "पूर्",
            "ण<|w|>"
        ],
        [
            "व",
            "ल<|w|>"
        ],
        [
            "छ",
            "ो"
        ],
        [
            "व",
            "ज"
        ],
        [
            "शि",
            "क्ष"
        ],
        [
            "क",
            "ी।<|w|>"
        ],
        [
            "दु",
            "का"
        ],
        [
            "रि",
            "पोर्ट<|w|>"
        ],
        [
            "र",
            "वि"
        ],
        [
            "उन",
            "की<|w|>"
        ],
        [
            "च",
            "े"
        ],
        [
            "श",
            "र्"
        ],
        [
            "ब",
            "ह<|w|>"
        ],
        [
            "बा",
            "इ"
        ],
        [
            "ड़",
            "ी<|w|>"
        ],
        [
            "था",
            "ना<|w|>"
        ],
        [
            "य",
            "क<|w|>"
        ],
        [
            "ना",
            "व<|w|>"
        ],
        [
            "रि",
            "त<|w|>"
        ],
        [
            "राज",
            "्य<|w|>"
        ],
        [
            "ौ",
            "र<|w|>"
        ],
        [
            "प",
            "री"
        ],
        [
            "मौ",
            "त<|w|>"
        ],
        [
            "यु",
            "क्त<|w|>"
        ]
    ]
}